<unk>	0
<s>	0
</s>	0
:“	-0
。”	-1
行者	-2
?”	-3
!”	-4
八戒	-5
师父	-6
行者道	-7
三藏	-8
一个	-9
大圣	-10
唐僧	-11
沙僧	-12
▁“	-13
和尚	-14
笑道	-15
怎么	-16
那里	-17
我们	-18
不知	-19
菩萨	-20
长老	-21
妖精	-22
▁那	-23
老孙	-24
八戒道	-25
两个	-26
什么	-27
——	-28
不是	-29
国王	-30
见那	-31
呆子	-32
三藏道	-33
徒弟	-34
▁”	-35
了一	-36
那怪	-37
▁道	-38
闻言	-39
与他	-40
原来	-41
不敢	-42
不曾	-43
小妖	-44
不得	-45
这个	-46
悟空	-47
▁行者	-48
大王	-49
如何	-50
是个	-51
▁一	-52
正是	-53
叫道	-54
▁却	-55
出来	-56
只是	-57
见了	-58
等我	-59
▁我	-60
▁他	-61
▁你	-62
三个	-63
▁不	-64
与你	-65
这里	-66
真个	-67
宝贝	-68
这等	-69
兄弟	-70
一声	-71
▁了	-72
有一	-73
听得	-74
是我	-75
也不	-76
今日	-77
来了	-78
如今	-79
上前	-80
怎的	-81
去了	-82
这一	-83
那个	-84
行者笑道	-85
取经	-86
在此	-87
孙行者	-88
我等	-89
起来	-90
▁是	-91
吃了	-92
这般	-93
妖怪	-94
与我	-95
只见	-96
老者	-97
不住	-98
西天	-99
铁棒	-100
师徒	-101
认得	-102
你看	-103
只见那	-104
就是	-105
▁却说	-106
来的	-107
见他	-108
老爷	-109
孙大圣	-110
进去	-111
公主	-112
东土	-113
你这	-114
我师父	-115
▁的	-116
果然	-117
有些	-118
不要	-119
人家	-120
太子	-121
▁个	-122
▁来	-123
哥哥	-124
沙僧道	-125
他的	-126
妖魔	-127
他一	-128
性命	-129
变作	-130
有个	-131
▁这	-132
在那	-133
师兄	-134
得那	-135
行李	-136
你们	-137
我的	-138
道士	-139
不能	-140
观看	-141
教他	-142
▁者	-143
不见	-144
弟子	-145
土地	-146
问道	-147
圣僧	-148
妖王	-149
那呆子	-150
▁好	-151
如来	-152
神通	-153
怎生	-154
天王	-155
爷爷	-156
云头	-157
都是	-158
老魔	-159
走了	-160
二十	-161
模样	-162
▁有	-163
在那里	-164
乃是	-165
欢喜	-166
一个个	-167
一齐	-168
闻得	-169
众僧	-170
多少	-171
贫僧	-172
金箍	-173
想是	-174
空中	-175
变做	-176
叫做	-177
心中	-178
▁行者道	-179
门外	-180
几个	-181
如此	-182
▁得	-183
▁也	-184
兵器	-185
龙王	-186
手段	-187
看看	-188
那妖精	-189
不好	-190
些儿	-191
十分	-192
看见	-193
来也	-194
骂道	-195
▁上	-196
不题	-197
只得	-198
女子	-199
出去	-200
大仙	-201
娘娘	-202
衣服	-203
却又	-204
多时	-205
仔细	-206
近前	-207
到此	-208
去罢	-209
变化	-210
的是	-211
▁人	-212
到了	-213
小的	-214
那老	-215
我也	-216
你怎么	-217
把那	-218
收了	-219
猪八戒	-220
▁又	-221
三十	-222
听见	-223
一般	-224
袈裟	-225
身一	-226
里面	-227
师徒们	-228
▁只	-229
你是	-230
叫声	-231
喝道	-232
四众	-233
西方	-234
唐僧道	-235
左右	-236
所以	-237
▁大	-238
关文	-239
吩咐	-240
打死	-241
他就	-242
你去	-243
言语	-244
▁僧	-245
魔王	-246
原来是	-247
晓得	-248
▁去	-249
一把	-250
了他	-251
你的	-252
钉钯	-253
拜佛	-254
洞里	-255
走路	-256
不可	-257
大唐	-258
▁里	-259
三人	-260
拿住	-261
被他	-262
▁三藏	-263
去也	-264
我这	-265
那些	-266
一条	-267
若是	-268
陛下	-269
孙悟空	-270
回头	-271
奈何	-272
罢了	-273
那妖	-274
五百	-275
故此	-276
毫毛	-277
玉帝	-278
▁下	-279
▁在	-280
取出	-281
看时	-282
礼道	-283
金箍棒	-284
▁第	-285
有甚	-286
▁着	-287
出门	-288
喜道	-289
方才	-290
一时	-291
安排	-292
递与	-293
▁就	-294
却才	-295
口里	-296
慌得	-297
我是	-298
降妖	-299
真个是	-300
▁老	-301
观音	-302
你且	-303
叩头	-304
扯住	-305
拿了	-306
▁正	-307
▁此	-308
不尽	-309
去来	-310
大小	-311
放心	-312
也是	-313
抬头	-314
有何	-315
特来	-316
之事	-317
分解	-318
哥啊	-319
筋斗	-320
老者道	-321
菩萨道	-322
▁头	-323
且听	-324
了我	-325
二人	-326
兢兢	-327
却是	-328
听说	-329
明日	-330
▁八戒	-331
忍不住	-332
高叫道	-333
做个	-334
当时	-335
收拾	-336
而去	-337
还有	-338
出家	-339
坐在	-340
天宫	-341
妖邪	-342
只听得	-343
沙和尚	-344
▁子	-345
▁无	-346
上有	-347
却不	-348
径至	-349
把他	-350
报道	-351
许多	-352
且听下	-353
回分解	-354
下来	-355
毕竟	-356
▁三	-357
▁将	-358
回来	-359
在地	-360
怪物	-361
本事	-362
白马	-363
老猪	-364
葫芦	-365
言道	-366
往西天	-367
那国王	-368
一座	-369
惊道	-370
汝等	-371
老妖	-372
造化	-373
战兢兢	-374
▁王	-375
三年	-376
之下	-377
开门	-378
是那	-379
罗刹	-380
路上	-381
▁天	-382
▁看	-383
▁见	-384
一只	-385
未曾	-386
你看他	-387
一口	-388
四十	-389
猴子	-390
道人	-391
门前	-392
齐天	-393
小的们	-394
▁说	-395
孩儿	-396
教我	-397
有三	-398
谢了	-399
▁却说那	-400
且听下回分解	-401
中间	-402
可怜	-403
揭谛	-404
求经	-405
有一个	-406
▁山	-407
不肯	-408
东西	-409
也罢	-410
回去	-411
赶上	-412
金光	-413
▁把	-414
头上	-415
忽见	-416
猴王	-417
耍子	-418
说话	-419
门里	-420
问他	-421
那长老	-422
▁儿	-423
下马	-424
住了	-425
南无	-426
有人	-427
现了	-428
他两个	-429
上来	-430
又见	-431
妇人	-432
得他	-433
雷音	-434
受用	-435
只管	-436
壁厢	-437
御弟	-438
怪道	-439
方便	-440
牛王	-441
用手	-442
皇帝	-443
进来	-444
国王道	-445
却也	-446
厉声	-447
此时	-448
王子	-449
说是	-450
一则	-451
丢了	-452
扇子	-453
磕头	-454
说得	-455
还不	-456
在这里	-457
的一声	-458
的和尚	-459
▁前	-460
佛祖	-461
保护	-462
多官	-463
悟净	-464
悟能	-465
还是	-466
你不	-467
慌了	-468
更无	-469
此言	-470
礼拜	-471
耳朵	-472
跪下	-473
着一个	-474
,《	-475
▁之	-476
他却	-477
咒语	-478
唐朝	-479
四个	-480
天地	-481
广大	-482
灵山	-483
老君	-484
自家	-485
毕竟不知	-486
二魔	-487
他那	-488
但见	-489
列位	-490
双手	-491
唤做	-492
将来	-493
本相	-494
那里去	-495
▁戒	-496
一根	-497
何如	-498
儿子	-499
看他	-500
知道	-501
童子	-502
诗曰	-503
身上	-504
过了	-505
过去	-506
驸马	-507
常言道	-508
之意	-509
我不	-510
法力	-511
群妖	-512
芭蕉	-513
面前	-514
▁师父	-515
身一变	-516
长老道	-517
东土大唐	-518
八戒笑道	-519
下去	-520
合掌	-521
开了	-522
当年	-523
我去	-524
打杀	-525
把我	-526
无礼	-527
是他	-528
看处	-529
着他	-530
精神	-531
马匹	-532
▁大圣	-533
出家人	-534
那和尚	-535
那怪道	-536
一日	-537
五十	-538
包袱	-539
唬得	-540
在山	-541
在旁	-542
奏道	-543
起身	-544
金刚	-545
须臾	-546
▁即	-547
▁话	-548
不了	-549
拿他	-550
昨日	-551
更不	-552
洞口	-553
雷公	-554
▁者道	-555
等老孙	-556
齐天大圣	-557
不过	-558
何处	-559
做了	-560
大路	-561
就打	-562
真是	-563
答应	-564
马上	-565
我这里	-566
▁么	-567
七十	-568
不期	-569
的人	-570
神僧	-571
走出	-572
不知是	-573
你这个	-574
摇身一变	-575
▁出	-576
不分	-577
之处	-578
了你	-579
众神	-580
倒换	-581
我就	-582
文武	-583
本是	-584
没有	-585
门首	-586
▁身	-587
你却	-588
我来	-589
教你	-590
此间	-591
殿上	-592
父王	-593
胡说	-594
躬身	-595
转身	-596
魔头	-597
闹天宫	-598
▁自	-599
前后	-600
后面	-601
在手	-602
我一	-603
祥光	-604
了一遍	-605
好大圣	-606
慌得那	-607
一阵	-608
住道	-609
你说	-610
把个	-611
无人	-612
此处	-613
父母	-614
莫想	-615
这厮	-616
与沙僧	-617
▁且	-618
▁小	-619
千里	-620
即命	-621
又来	-622
好歹	-623
干净	-624
待我	-625
这是	-626
▁唐僧	-627
▁中	-628
▁众	-629
▁要	-630
七八	-631
不同	-632
为证	-633
使个	-634
便是	-635
去处	-636
又有	-637
山中	-638
按落	-639
泪道	-640
生得	-641
着头	-642
老儿	-643
门上	-644
保唐僧	-645
唐三藏	-646
行者闻言	-647
不识	-648
你可	-649
年前	-650
怕他	-651
放下	-652
方丈	-653
果子	-654
烦恼	-655
祥云	-656
解了	-657
路旁	-658
与八戒	-659
但见那	-660
又见那	-661
心中暗	-662
这大圣	-663
▁好大圣	-664
神通广大	-665
▁们	-666
上马	-667
下拜	-668
之间	-669
你既	-670
和你	-671
嘴脸	-672
坐下	-673
山门	-674
我说	-675
打个	-676
脱了	-677
迎着	-678
饶你	-679
了一个	-680
▁心	-681
▁日	-682
上一	-683
不动	-684
且莫	-685
两边	-686
之言	-687
他也	-688
仙气	-689
半空	-690
只因	-691
呵呵	-692
在他	-693
城中	-694
宝杖	-695
把这	-696
死了	-697
猢狲	-698
相见	-699
花果	-700
若不	-701
驾云	-702
兄弟们	-703
怎么就	-704
老魔道	-705
那怪物	-706
▁何	-707
▁十	-708
一定	-709
不必	-710
不打	-711
你来	-712
几时	-713
孽畜	-714
就要	-715
得了	-716
果是	-717
直至	-718
着一	-719
罗汉	-720
跳出	-721
过来	-722
那厮	-723
金星	-724
长生	-725
你两个	-726
半空中	-727
唬得那	-728
在空中	-729
小妖道	-730
三藏闻言	-731
那里来的	-732
▁父	-733
一一	-734
一顿	-735
下界	-736
不然	-737
之时	-738
先生	-739
其实	-740
到那	-741
前进	-742
吆喝	-743
哪吒	-744
大怒	-745
小儿	-746
得我	-747
心惊	-748
惊动	-749
拿来	-750
放在	-751
棍子	-752
泼猴	-753
箍儿	-754
自在	-755
西去	-756
轻轻	-757
却不是	-758
既如此	-759
诗为证	-760
这一场	-761
▁才	-762
▁知	-763
一件	-764
主公	-765
你也	-766
你那	-767
出城	-768
南海	-769
原是	-770
只叫	-771
只有	-772
员外	-773
女王	-774
寡人	-775
火焰	-776
自有	-777
都在	-778
你师父	-779
徒弟啊	-780
这和尚	-781
那行者	-782
厉声高叫道	-783
▁圣	-784
▁打	-785
万望	-786
不用	-787
伏侍	-788
前面	-789
化斋	-790
又问	-791
各各	-792
就走	-793
得个	-794
想道	-795
扑的	-796
挑着	-797
旨意	-798
樵子	-799
的道	-800
看了	-801
要吃	-802
迎接	-803
还我	-804
金睛	-805
大惊道	-806
师父啊	-807
是什么	-808
老师父	-809
▁八戒道	-810
▁二	-811
▁些	-812
▁今	-813
▁藏	-814
▁行	-815
▁门	-816
他说	-817
你还	-818
修行	-819
僧人	-820
大哥	-821
好杀	-822
将他	-823
慈悲	-824
是好	-825
有此	-826
母亲	-827
比丘	-828
直裰	-829
虽是	-830
变做个	-831
我与你	-832
观音菩萨	-833
▁云	-834
一路	-835
不觉	-836
了几	-837
了去	-838
他去	-839
他又	-840
公公	-841
利害	-842
却就	-843
原身	-844
外面	-845
天晚	-846
女儿	-847
好道	-848
忽然	-849
明白	-850
木叉	-851
正果	-852
殿下	-853
相貌	-854
老师	-855
腰间	-856
赌斗	-857
钵盂	-858
驿丞	-859
了一声	-860
将起来	-861
把唐僧	-862
正是那	-863
那女子	-864
”。	-865
▁时	-866
▁等	-867
▁若	-868
▁都	-869
▁金	-870
▁马	-871
三千	-872
之内	-873
人道	-874
传旨	-875
先锋	-876
六十	-877
动手	-878
名字	-879
害怕	-880
幌一	-881
捻着	-882
放了	-883
星官	-884
洞中	-885
清风	-886
皈依	-887
穿了	-888
老怪	-889
贤弟	-890
趁早	-891
银子	-892
▁沙僧	-893
▁长老	-894
众僧道	-895
取经的	-896
口仙气	-897
没奈何	-898
等我去	-899
筋斗云	-900
▁与	-901
▁风	-902
不在	-903
不成	-904
不来	-905
不消	-906
且休	-907
个大	-908
之人	-909
乾坤	-910
依言	-911
出了	-912
功曹	-913
向前	-914
圈子	-915
寺里	-916
就有	-917
山上	-918
快早	-919
慌忙	-920
抽身	-921
施主	-922
有四	-923
父子	-924
狂风	-925
真经	-926
连忙	-927
▁一个	-928
有一座	-929
花果山	-930
那老者	-931
倒换关文	-932
拜佛求经	-933
▁精	-934
为何	-935
之上	-936
了三	-937
二哥	-938
他们	-939
他是	-940
他来	-941
你若	-942
半个	-943
后边	-944
国师	-945
天尊	-946
天明	-947
天色	-948
妈妈	-949
必定	-950
快去	-951
我家	-952
挑担	-953
更时	-954
来此	-955
牵马	-956
真假	-957
端的	-958
第二	-959
肚里	-960
莫念	-961
那时	-962
郡侯	-963
随后	-964
与行者	-965
将身一	-966
有多少	-967
欢喜道	-968
▁三藏道	-969
按落云头	-970
▁到	-971
▁叫	-972
▁四	-973
▁声	-974
不瞒	-975
之心	-976
之物	-977
何也	-978
光明	-979
十八	-980
古人	-981
只怕	-982
呼呼	-983
天竺	-984
山坡	-985
师弟	-986
怎敢	-987
成精	-988
我那	-989
拿出	-990
时辰	-991
是何	-992
朝上	-993
树上	-994
百十	-995
相迎	-996
神仙	-997
离了	-998
莫要	-999
说出	-1000
还要	-1001
进城	-1002
遇着	-1003
都来	-1004
里边	-1005
问你	-1006
高山	-1007
不见了	-1008
却怎么	-1009
原来那	-1010
土地道	-1011
大仙道	-1012
行者又	-1013
▁再	-1014
▁处	-1015
▁走	-1016
下手	-1017
众妖	-1018
依然	-1019
元帅	-1020
全无	-1021
大海	-1022
将那	-1023
就如	-1024
急纵	-1025
打他	-1026
找寻	-1027
斋僧	-1028
日月	-1029
有几	-1030
有理	-1031
花园	-1032
计较	-1033
一只手	-1034
在马上	-1035
小和尚	-1036
忽听得	-1037
我老孙	-1038
这行者	-1039
有诗为证	-1040
▁家	-1041
▁当	-1042
▁往	-1043
▁手	-1044
▁请	-1045
》,	-1046
一发	-1047
一行	-1048
不吃	-1049
不须	-1050
之恩	-1051
买卖	-1052
了这	-1053
人参	-1054
八百	-1055
又不	-1056
口中	-1057
君王	-1058
如意	-1059
宝剑	-1060
宝殿	-1061
将去	-1062
小龙	-1063
尽皆	-1064
底下	-1065
得胜	-1066
想必	-1067
抖擞	-1068
按下	-1069
着那	-1070
莫说	-1071
不多时	-1072
你看那	-1073
扯住道	-1074
被行者	-1075
说不了	-1076
▁万	-1077
▁可	-1078
▁后	-1079
▁官	-1080
一场	-1081
人间	-1082
关了	-1083
几年	-1084
千万	-1085
叫他	-1086
听言	-1087
大家	-1088
天上	-1089
头来	-1090
奶奶	-1091
山神	-1092
手下	-1093
才是	-1094
打破	-1095
接了	-1096
法儿	-1097
点头	-1098
老道	-1099
话儿	-1100
诸天	-1101
这场	-1102
远近	-1103
须是	-1104
▁怎么	-1105
一个是	-1106
不好了	-1107
件宝贝	-1108
叩头道	-1109
将进去	-1110
施礼道	-1111
跪下道	-1112
这妖精	-1113
吹口仙气	-1114
▁怪	-1115
▁教	-1116
▁方	-1117
一家	-1118
与那	-1119
之声	-1120
了个	-1121
人的	-1122
人等	-1123
便罢	-1124
只说	-1125
可以	-1126
四大	-1127
国丈	-1128
得好	-1129
悄悄	-1130
我把	-1131
既是	-1132
明月	-1133
是甚	-1134
有五	-1135
渐渐	-1136
真言	-1137
脱身	-1138
见我	-1139
身子	-1140
这些	-1141
也不曾	-1142
果然是	-1143
那八戒	-1144
▁事	-1145
▁外	-1146
▁经	-1147
▁言	-1148
▁还	-1149
一下	-1150
一拥	-1151
一部	-1152
万岁	-1153
三位	-1154
不济	-1155
不着	-1156
交战	-1157
众官	-1158
决不	-1159
南天	-1160
即忙	-1161
却好	-1162
只为	-1163
可是	-1164
城池	-1165
声音	-1166
天下	-1167
天师	-1168
女婿	-1169
女怪	-1170
婆婆	-1171
安歇	-1172
容易	-1173
手脚	-1174
正在	-1175
此山	-1176
法师	-1177
着马	-1178
睡觉	-1179
而来	-1180
若要	-1181
长嘴	-1182
闻说	-1183
与我们	-1184
二魔道	-1185
在地下	-1186
妖王道	-1187
幌一幌	-1188
▁他两个	-1189
五百年前	-1190
大闹天宫	-1191
现了本相	-1192
▁两	-1193
▁生	-1194
▁莫	-1195
▁面	-1196
上殿	-1197
之中	-1198
二来	-1199
伤了	-1200
你就	-1201
供养	-1202
冲撞	-1203
前来	-1204
即便	-1205
却说	-1206
因此	-1207
太宗	-1208
好了	-1209
山凹	-1210
山头	-1211
弼马	-1212
断然	-1213
望见	-1214
本象	-1215
来到	-1216
洞门	-1217
流沙	-1218
灵霄	-1219
狮子	-1220
猴头	-1221
相持	-1222
着实	-1223
知是	-1224
黄金	-1225
大圣道	-1226
牛魔王	-1227
芭蕉扇	-1228
那两个	-1229
▁行者笑道	-1230
▁吃	-1231
▁妖	-1232
▁尚	-1233
▁弟	-1234
▁曾	-1235
七个	-1236
三日	-1237
不去	-1238
不许	-1239
二位	-1240
二则	-1241
你道	-1242
借宿	-1243
做甚	-1244
僧道	-1245
分明	-1246
到于	-1247
即将	-1248
去得	-1249
可有	-1250
夯货	-1251
寿星	-1252
小神	-1253
左手	-1254
念动	-1255
披挂	-1256
捆了	-1257
晦气	-1258
有十	-1259
望空	-1260
正行	-1261
满心	-1262
现出	-1263
白玉	-1264
睡着	-1265
荡荡	-1266
虽然	-1267
辛苦	-1268
金银	-1269
铃儿	-1270
阴阳	-1271
霎时	-1272
鼻子	-1273
▁和尚	-1274
你不知	-1275
杀我也	-1276
李天王	-1277
箍儿咒	-1278
行者在	-1279
这一去	-1280
那大圣	-1281
雷音寺	-1282
战战兢兢	-1283
▁便	-1284
▁各	-1285
▁开	-1286
▁棒	-1287
▁火	-1288
一百	-1289
一直	-1290
上去	-1291
上面	-1292
下一	-1293
不会	-1294
之后	-1295
五行	-1296
但只	-1297
何来	-1298
你家	-1299
停当	-1300
偷了	-1301
再去	-1302
千年	-1303
君臣	-1304
在这	-1305
好人	-1306
好生	-1307
弟兄	-1308
径转	-1309
必然	-1310
念个	-1311
我却	-1312
我自	-1313
打听	-1314
打得	-1315
把门	-1316
救得	-1317
救我	-1318
是你	-1319
松林	-1320
武艺	-1321
水帘	-1322
沙门	-1323
洞府	-1324
然后	-1325
皇后	-1326
看守	-1327
着我	-1328
被我	-1329
让他	-1330
话说	-1331
说道	-1332
身法	-1333
逃生	-1334
那魔	-1335
部洲	-1336
长短	-1337
问讯	-1338
顶上	-1339
▁不知	-1340
▁两个	-1341
▁老孙	-1342
▁那怪	-1343
▁那里	-1344
了多少	-1345
但只是	-1346
在里面	-1347
太子道	-1348
行者暗	-1349
这正是	-1350
那妇人	-1351
那妖王	-1352
那里走	-1353
▁住	-1354
▁哩	-1355
▁多	-1356
▁敢	-1357
▁龙	-1358
不出	-1359
中有	-1360
之外	-1361
二百	-1362
众人	-1363
低头	-1364
你只	-1365
倒也	-1366
六个	-1367
净瓶	-1368
切莫	-1369
别了	-1370
前日	-1371
变了	-1372
只要	-1373
处处	-1374
外公	-1375
天河	-1376
尘埃	-1377
就不	-1378
巡山	-1379
当面	-1380
径入	-1381
径回	-1382
急急	-1383
拿着	-1384
救他	-1385
朝天	-1386
欠身	-1387
欣然	-1388
禅堂	-1389
等候	-1390
粗细	-1391
莲花	-1392
过山	-1393
还未	-1394
门来	-1395
阎王	-1396
高叫	-1397
▁我们	-1398
不分胜	-1399
出门来	-1400
古人云	-1401
是我的	-1402
请师父	-1403
这呆子	-1404
▁师徒们	-1405
▁九	-1406
▁地	-1407
▁水	-1408
▁神	-1409
▁起	-1410
一片	-1411
上下	-1412
上天	-1413
不上	-1414
世间	-1415
个个	-1416
五方	-1417
他若	-1418
以为	-1419
何在	-1420
你要	-1421
僧官	-1422
只消	-1423
在我	-1424
天兵	-1425
往来	-1426
怠慢	-1427
想着	-1428
我师	-1429
我才	-1430
房里	-1431
打了	-1432
打开	-1433
打扮	-1434
掣出	-1435
方可	-1436
无知	-1437
早已	-1438
是谁	-1439
猪羊	-1440
祸事	-1441
称谢	-1442
童儿	-1443
纷纷	-1444
自然	-1445
至此	-1446
英雄	-1447
莫怕	-1448
行囊	-1449
解下	-1450
记得	-1451
跳下	-1452
金銮	-1453
院主	-1454
上西天	-1455
弼马温	-1456
怎么又	-1457
变作一个	-1458
▁千	-1459
▁名	-1460
▁宫	-1461
▁玉	-1462
▁至	-1463
▁路	-1464
一处	-1465
万里	-1466
不容	-1467
不怕	-1468
之罪	-1469
也曾	-1470
了些	-1471
今夜	-1472
今年	-1473
伽蓝	-1474
何方	-1475
假若	-1476
唐王	-1477
坏了	-1478
大惊	-1479
大胆	-1480
天蓬	-1481
太师	-1482
夫妻	-1483
好处	-1484
威风	-1485
官儿	-1486
将身	-1487
开口	-1488
彀了	-1489
往西	-1490
成功	-1491
拜谢	-1492
指道	-1493
散了	-1494
明早	-1495
昼夜	-1496
来请	-1497
楼台	-1498
正然	-1499
火光	-1500
火眼	-1501
焚香	-1502
瑞气	-1503
疼痛	-1504
的一	-1505
祭赛	-1506
苍蝇	-1507
要打	-1508
请他	-1509
谢恩	-1510
起去	-1511
遂此	-1512
钦差	-1513
钻风	-1514
高徒	-1515
▁国王	-1516
▁菩萨	-1517
▁话说	-1518
也不敢	-1519
他三人	-1520
入里面	-1521
变作个	-1522
大徒弟	-1523
天竺国	-1524
慌了道	-1525
是老孙	-1526
有什么	-1527
这等说	-1528
那师父	-1529
▁孙大圣	-1530
▁先	-1531
▁早	-1532
▁然	-1533
▁眼	-1534
▁罢	-1535
▁边	-1536
▁黄	-1537
一人	-1538
一会	-1539
三众	-1540
下了	-1541
不远	-1542
云端	-1543
他道	-1544
余里	-1545
刺史	-1546
前门	-1547
十二	-1548
又道	-1549
只在	-1550
只教	-1551
向西	-1552
告道	-1553
嚷道	-1554
大的	-1555
失色	-1556
将此	-1557
强盗	-1558
往前	-1559
往外	-1560
径到	-1561
得动	-1562
惫懒	-1563
执着	-1564
拽开	-1565
拿去	-1566
是一	-1567
朱紫	-1568
杀了	-1569
油锅	-1570
洞外	-1571
消息	-1572
滚滚	-1573
猴儿	-1574
盘缠	-1575
看那	-1576
着手	-1577
老大	-1578
莫怪	-1579
虫儿	-1580
行凶	-1581
见说	-1582
金丹	-1583
顷刻	-1584
▁不是	-1585
▁妖精	-1586
上前道	-1587
似这般	-1588
公主道	-1589
我们的	-1590
拿出来	-1591
滴泪道	-1592
爬起来	-1593
的小妖	-1594
说得是	-1595
请唐僧	-1596
那道士	-1597
▁那呆子	-1598
▁那长老	-1599
往西天取经	-1600
▁佛	-1601
▁倒	-1602
▁分	-1603
▁因	-1604
▁孙	-1605
▁寻	-1606
三百	-1607
上界	-1608
不放	-1609
丑陋	-1610
你倒	-1611
六丁	-1612
努力	-1613
勾当	-1614
却将	-1615
又将	-1616
可曾	-1617
名唤	-1618
启奏	-1619
善哉	-1620
对众	-1621
就来	-1622
展开	-1623
必有	-1624
怒道	-1625
我且	-1626
我有	-1627
我若	-1628
抬出	-1629
斋饭	-1630
楼上	-1631
泼怪	-1632
满天	-1633
烟火	-1634
看着	-1635
知之	-1636
石头	-1637
石崖	-1638
称为	-1639
筵宴	-1640
翻身	-1641
虎皮	-1642
蟠桃	-1643
让我	-1644
败阵	-1645
送你	-1646
金山	-1647
问我	-1648
随身	-1649
饶他	-1650
饶命	-1651
魂飞	-1652
云端里	-1653
他怎么	-1654
他怎的	-1655
在手中	-1656
忽抬头	-1657
怎么说	-1658
我和你	-1659
捻着诀	-1660
救师父	-1661
止不住	-1662
老妖道	-1663
龙王道	-1664
▁行者闻言	-1665
▁回	-1666
▁师	-1667
▁海	-1668
▁物	-1669
▁白	-1670
▁高	-1671
一棒	-1672
上了	-1673
不已	-1674
个人	-1675
中华	-1676
也有	-1677
了两	-1678
仙童	-1679
伤人	-1680
入朝	-1681
内有	-1682
分说	-1683
半日	-1684
去寻	-1685
又叫	-1686
取了	-1687
变的	-1688
古怪	-1689
喜欢	-1690
天晓	-1691
天神	-1692
官员	-1693
定是	-1694
家子	-1695
尊者	-1696
已是	-1697
开路	-1698
当中	-1699
思量	-1700
急忙	-1701
恐怕	-1702
换了	-1703
无边	-1704
既然	-1705
来道	-1706
森森	-1707
毛脸	-1708
泼魔	-1709
烧火	-1710
神兵	-1711
算计	-1712
至今	-1713
莲台	-1714
落下	-1715
袖中	-1716
误了	-1717
说了	-1718
说处	-1719
跳上	-1720
这样	-1721
阴风	-1722
难行	-1723
黄袍	-1724
齐整	-1725
一壁厢	-1726
三年前	-1727
与唐僧	-1728
与老孙	-1729
也不知	-1730
二十八	-1731
他也不	-1732
使铁棒	-1733
倒在地	-1734
急回头	-1735
更不曾	-1736
水帘洞	-1737
着铁棒	-1738
罗刹女	-1739
请菩萨	-1740
那三个	-1741
▁那大圣	-1742
原来是个	-1743
往那里去	-1744
说得有理	-1745
▁为	-1746
▁几	-1747
▁口	-1748
▁花	-1749
▁长	-1750
▁问	-1751
▁难	-1752
一张	-1753
一见	-1754
一身	-1755
两班	-1756
临凡	-1757
之功	-1758
乱打	-1759
云雾	-1760
今已	-1761
佛衣	-1762
你又	-1763
侍立	-1764
便就	-1765
六甲	-1766
出水	-1767
劈头	-1768
十万	-1769
即时	-1770
后门	-1771
唿喇	-1772
回合	-1773
圣宫	-1774
在水	-1775
坐了	-1776
天门	-1777
夫人	-1778
就把	-1779
年纪	-1780
庄观	-1781
心猿	-1782
念念	-1783
恕罪	-1784
悚惧	-1785
我好	-1786
打着	-1787
护持	-1788
报仇	-1789
捉弄	-1790
放他	-1791
无事	-1792
无奈	-1793
无数	-1794
有的	-1795
来我	-1796
极乐	-1797
枪刀	-1798
楼下	-1799
没了	-1800
火德	-1801
灯火	-1802
烧了	-1803
老龙	-1804
自己	-1805
荆棘	-1806
行至	-1807
要走	-1808
见佛	-1809
解数	-1810
起道	-1811
跳将	-1812
躲过	-1813
转过	-1814
那一	-1815
那山	-1816
长安	-1817
长枪	-1818
阶前	-1819
难禁	-1820
不打紧	-1821
不要走	-1822
人参果	-1823
他那里	-1824
合掌道	-1825
在半空	-1826
大喜道	-1827
徒弟们	-1828
我两个	-1829
我弟子	-1830
有两个	-1831
流沙河	-1832
火焰山	-1833
爷爷呀	-1834
着唐僧	-1835
认得我	-1836
认得是	-1837
轻轻的	-1838
那一个	-1839
那人道	-1840
那妖魔	-1841
那里话	-1842
里远近	-1843
须臾间	-1844
▁这大圣	-1845
怎生是好	-1846
按下云头	-1847
闻得此言	-1848
”,	-1849
▁萨	-1850
▁间	-1851
一双	-1852
一同	-1853
三五	-1854
不如	-1855
不管	-1856
不言	-1857
之理	-1858
之类	-1859
二郎	-1860
人马	-1861
今番	-1862
他见	-1863
伶俐	-1864
但恐	-1865
何干	-1866
你了	-1867
你好	-1868
儿女	-1869
兄长	-1870
先去	-1871
凡胎	-1872
出头	-1873
别人	-1874
南赡	-1875
却似	-1876
在家	-1877
城里	-1878
太上	-1879
太监	-1880
子里	-1881
将我	-1882
少时	-1883
已此	-1884
念佛	-1885
怪我	-1886
手中	-1887
手道	-1888
打发	-1889
摆列	-1890
施威	-1891
林中	-1892
此物	-1893
看得	-1894
礼毕	-1895
禅师	-1896
答道	-1897
紧闭	-1898
绳子	-1899
腾云	-1900
茶饭	-1901
行满	-1902
见得	-1903
解脱	-1904
说我	-1905
赶来	-1906
身体	-1907
这话	-1908
适才	-1909
那般	-1910
高老	-1911
魄散	-1912
黄风	-1913
龙床	-1914
▁——	-1915
▁笑道	-1916
了他的	-1917
五庄观	-1918
只闻得	-1919
小钻风	-1920
师父的	-1921
我们是	-1922
更时分	-1923
有三个	-1924
第二个	-1925
说什么	-1926
金山兜	-1927
变做一个	-1928
紧箍儿咒	-1929
说了一遍	-1930
▁—	-1931
▁从	-1932
▁会	-1933
▁同	-1934
▁善	-1935
▁拜	-1936
▁救	-1937
▁果	-1938
▁百	-1939
▁青	-1940
▁魔	-1941
一十	-1942
不信	-1943
不老	-1944
不通	-1945
东方	-1946
丢下	-1947
为人	-1948
举钯	-1949
九霄	-1950
五千	-1951
今早	-1952
伏虎	-1953
伯钦	-1954
何为	-1955
凭你	-1956
卷帘	-1957
去的	-1958
又一	-1959
又被	-1960
只听	-1961
吃得	-1962
地方	-1963
坐着	-1964
声道	-1965
大喜	-1966
奉旨	-1967
家火	-1968
寺院	-1969
小仙	-1970
岂有	-1971
岸上	-1972
差了	-1973
干事	-1974
念经	-1975
我因	-1976
我已	-1977
战经	-1978
把头	-1979
捉住	-1980
放火	-1981
杨柳	-1982
校尉	-1983
次日	-1984
正自	-1985
死活	-1986
死罪	-1987
没事	-1988
没人	-1989
没处	-1990
然不	-1991
犀牛	-1992
琉璃	-1993
留下	-1994
真仙	-1995
窟窿	-1996
立在	-1997
粉碎	-1998
绑在	-1999
而走	-2000
胆战	-2001
自古	-2002
藏在	-2003
虎豹	-2004
见一	-2005
观世	-2006
象个	-2007
走过	-2008
赶到	-2009
逍遥	-2010
都要	-2011
陈家	-2012
风响	-2013
馆驿	-2014
香火	-2015
▁不曾	-2016
▁大王	-2017
▁当时	-2018
不住的	-2019
也不是	-2020
了师父	-2021
作礼道	-2022
值功曹	-2023
出一个	-2024
唐僧的	-2025
喜欢欢	-2026
开了门	-2027
徒弟呀	-2028
悄悄的	-2029
我晓得	-2030
把行者	-2031
拽开步	-2032
有几个	-2033
洋大海	-2034
美猴王	-2035
老孙的	-2036
走上前	-2037
那老魔	-2038
闻此言	-2039
雷公嘴	-2040
八戒沙僧	-2041
心中大怒	-2042
念个咒语	-2043
是个什么	-2044
行者见了	-2045
:‘	-2046
▁命	-2047
▁对	-2048
▁急	-2049
▁意	-2050
▁拿	-2051
▁法	-2052
▁空	-2053
▁过	-2054
一向	-2055
一宵	-2056
一领	-2057
万道	-2058
不当	-2059
之法	-2060
之际	-2061
于此	-2062
云洞	-2063
人来	-2064
人物	-2065
伺候	-2066
倒了	-2067
儿来	-2068
八九	-2069
再不	-2070
几日	-2071
前事	-2072
化作	-2073
又是	-2074
取水	-2075
只好	-2076
只恐	-2077
右手	-2078
吃哩	-2079
吃酒	-2080
吊在	-2081
响亮	-2082
四时	-2083
四海	-2084
回生	-2085
地下	-2086
外边	-2087
好个	-2088
宝塔	-2089
寻他	-2090
层门	-2091
帅众	-2092
当驾	-2093
径往	-2094
得紧	-2095
快快	-2096
念声	-2097
成的	-2098
我还	-2099
所谓	-2100
才好	-2101
救你	-2102
无穷	-2103
无踪	-2104
既有	-2105
早晚	-2106
暗中	-2107
有难	-2108
本身	-2109
水火	-2110
河边	-2111
浑身	-2112
灵吉	-2113
甚好	-2114
男女	-2115
的话	-2116
着你	-2117
着嘴	-2118
破了	-2119
碗来	-2120
索战	-2121
耍耍	-2122
脸上	-2123
致令	-2124
要去	-2125
见你	-2126
见驾	-2127
走兽	-2128
跪在	-2129
路程	-2130
路过	-2131
身穿	-2132
身边	-2133
输赢	-2134
远来	-2135
那三	-2136
那方	-2137
锦绣	-2138
降龙	-2139
霞光	-2140
风吹	-2141
饮酒	-2142
▁只因	-2143
▁只是	-2144
▁如何	-2145
不曾见	-2146
与师父	-2147
了些儿	-2148
大笑道	-2149
天王道	-2150
待老孙	-2151
怎么不	-2152
第三个	-2153
行者见	-2154
观世音	-2155
那娘娘	-2156
那小妖	-2157
那时节	-2158
都是些	-2159
▁只见那	-2160
五方揭谛	-2161
十分欢喜	-2162
师徒四众	-2163
满心欢喜	-2164
▁做	-2165
▁光	-2166
▁公	-2167
▁年	-2168
▁战	-2169
▁放	-2170
▁斗	-2171
▁朝	-2172
▁满	-2173
▁相	-2174
▁送	-2175
一千	-2176
一步	-2177
一毫	-2178
一道	-2179
三合	-2180
上坐	-2181
上山	-2182
上门	-2183
下水	-2184
下降	-2185
不受	-2186
且住	-2187
且去	-2188
世界	-2189
九头	-2190
九齿	-2191
了马	-2192
人也	-2193
人头	-2194
今朝	-2195
便了	-2196
倒身	-2197
倘或	-2198
写着	-2199
刁钻	-2200
前去	-2201
前边	-2202
助力	-2203
即唤	-2204
去请	-2205
发怒	-2206
呼唤	-2207
喏道	-2208
喝声	-2209
国之	-2210
埋怨	-2211
备言	-2212
天将	-2213
失迎	-2214
奉上	-2215
女童	-2216
好汉	-2217
娘子	-2218
孩子	-2219
小怪	-2220
就去	-2221
峥嵘	-2222
延寿	-2223
弥陀	-2224
当头	-2225
必是	-2226
忙忙	-2227
我儿	-2228
我看	-2229
或者	-2230
护法	-2231
搭包	-2232
撞见	-2233
擂鼓	-2234
斗经	-2235
昏君	-2236
星君	-2237
普陀	-2238
替你	-2239
有事	-2240
来得	-2241
来看	-2242
架住	-2243
架子	-2244
棒来	-2245
正欲	-2246
死的	-2247
殿前	-2248
狮驼	-2249
玄奘	-2250
玉皇	-2251
留他	-2252
皇宫	-2253
禄寺	-2254
福地	-2255
等众	-2256
紧紧	-2257
绣球	-2258
翻波	-2259
老实	-2260
老王	-2261
而回	-2262
若有	-2263
蓬莱	-2264
虎力	-2265
西行	-2266
请起	-2267
迎风	-2268
这山	-2269
这怪	-2270
途中	-2271
那伙	-2272
那厢	-2273
都道	-2274
镇元	-2275
阴司	-2276
降了	-2277
飘飘	-2278
高峰	-2279
黑风	-2280
▁叫道	-2281
▁呆子	-2282
▁戒道	-2283
▁等我	-2284
▁闻言	-2285
下马来	-2286
了一下	-2287
了性命	-2288
你道他	-2289
却不知	-2290
又听得	-2291
在何处	-2292
在此间	-2293
将出来	-2294
把师父	-2295
有些儿	-2296
有这般	-2297
牵着马	-2298
着八戒	-2299
磕头道	-2300
见了道	-2301
见师父	-2302
见行者	-2303
这猴子	-2304
长嘴大	-2305
▁那国王	-2306
不分胜负	-2307
仔细观看	-2308
喜喜欢欢	-2309
对行者道	-2310
将身一纵	-2311
沙僧笑道	-2312
火眼金睛	-2313
递与行者	-2314
▁乃	-2315
▁五	-2316
▁仙	-2317
▁入	-2318
▁定	-2319
▁明	-2320
▁气	-2321
▁被	-2322
一生	-2323
万千	-2324
万年	-2325
下有	-2326
不及	-2327
与众	-2328
两只	-2329
之情	-2330
乒乓	-2331
云光	-2332
五个	-2333
他把	-2334
伸手	-2335
你哩	-2336
你老	-2337
你莫	-2338
便似	-2339
俱是	-2340
全真	-2341
几番	-2342
凡人	-2343
凤仙	-2344
出得	-2345
分开	-2346
前年	-2347
剥皮	-2348
功果	-2349
勒马	-2350
南山	-2351
又教	-2352
发狠	-2353
受了	-2354
变得	-2355
吃他	-2356
向后	-2357
呼道	-2358
咬着	-2359
善财	-2360
四下	-2361
在于	-2362
坡下	-2363
坡前	-2364
声大	-2365
天井	-2366
天气	-2367
太岁	-2368
太阳	-2369
头儿	-2370
子来	-2371
孔雀	-2372
定要	-2373
宫娥	-2374
密密	-2375
寺僧	-2376
就行	-2377
尽是	-2378
层层	-2379
崖前	-2380
巍巍	-2381
廊下	-2382
弄得	-2383
心上	-2384
情愿	-2385
慢慢	-2386
我王	-2387
才得	-2388
报与	-2389
报怨	-2390
拔下	-2391
拜毕	-2392
捉了	-2393
掀翻	-2394
摩昂	-2395
放光	-2396
斗牛	-2397
暗暗	-2398
暗自	-2399
朋友	-2400
木母	-2401
来拜	-2402
来时	-2403
欺心	-2404
此去	-2405
毗蓝	-2406
江山	-2407
法名	-2408
深山	-2409
点起	-2410
物件	-2411
玉兔	-2412
玉华	-2413
甚是	-2414
用心	-2415
白日	-2416
眼中	-2417
着脚	-2418
石门	-2419
立于	-2420
笑吟	-2421
第一	-2422
管待	-2423
索性	-2424
绳儿	-2425
老鼋	-2426
而行	-2427
腾腾	-2428
若论	-2429
连夜	-2430
那条	-2431
邪魔	-2432
都到	-2433
酬谢	-2434
重重	-2435
钢刀	-2436
钻入	-2437
锦衣	-2438
鞍辔	-2439
飞禽	-2440
鬼神	-2441
▁与你	-2442
▁正是	-2443
与大圣	-2444
你那里	-2445
又不是	-2446
叫一声	-2447
唐长老	-2448
女菩萨	-2449
好和尚	-2450
如来道	-2451
妖精道	-2452
对唐僧	-2453
师父说	-2454
御花园	-2455
急抽身	-2456
我不是	-2457
是一个	-2458
朱紫国	-2459
的模样	-2460
着师父	-2461
老和尚	-2462
行者即	-2463
那老儿	-2464
那魔王	-2465
陪笑道	-2466
二十八宿	-2467
南赡部洲	-2468
太上老君	-2469
怎生模样	-2470
行李马匹	-2471
跳在空中	-2472
▁使	-2473
▁六	-2474
▁变	-2475
▁听	-2476
▁嘴	-2477
▁如	-2478
▁少	-2479
▁快	-2480
▁能	-2481
▁般	-2482
▁香	-2483
一头	-2484
三层	-2485
下雨	-2486
不羞	-2487
两家	-2488
主人	-2489
之宝	-2490
争持	-2491
事不	-2492
令郎	-2493
传令	-2494
你回	-2495
俯伏	-2496
八十	-2497
剥了	-2498
化了	-2499
又念	-2500
只等	-2501
只道	-2502
吃人	-2503
各执	-2504
吉凶	-2505
同去	-2506
后园	-2507
咬牙	-2508
哈哈	-2509
器械	-2510
四位	-2511
四百	-2512
在门	-2513
地上	-2514
大人	-2515
大地	-2516
大开	-2517
大道	-2518
天涯	-2519
如雷	-2520
宝方	-2521
实是	-2522
宫中	-2523
将军	-2524
小弟	-2525
小徒	-2526
尽情	-2527
居住	-2528
岸边	-2529
工夫	-2530
布金	-2531
帖儿	-2532
得知	-2533
心焦	-2534
思凡	-2535
我哩	-2536
指定	-2537
挡住	-2538
推倒	-2539
敲着	-2540
斋供	-2541
旁边	-2542
无影	-2543
晶宫	-2544
有千	-2545
有缘	-2546
来报	-2547
正走	-2548
没甚	-2549
淋淋	-2550
满面	-2551
烟霞	-2552
玉面	-2553
留心	-2554
相送	-2555
看经	-2556
看茶	-2557
着了	-2558
神将	-2559
肉眼	-2560
荒山	-2561
行礼	-2562
行经	-2563
西梁	-2564
诚然	-2565
说他	-2566
请坐	-2567
败了	-2568
足下	-2569
辞了	-2570
近侍	-2571
进门	-2572
送行	-2573
道声	-2574
那贼	-2575
金身	-2576
锡杖	-2577
顿首	-2578
驾下	-2579
齐来	-2580
▁悟空	-2581
▁话表	-2582
七十二	-2583
了一会	-2584
众小妖	-2585
但不知	-2586
做什么	-2587
八百里	-2588
取经人	-2589
在旁边	-2590
声叫道	-2591
天色将	-2592
好行者	-2593
娘娘道	-2594
将出去	-2595
山凹里	-2596
往那里	-2597
得一个	-2598
急纵身	-2599
掣铁棒	-2600
是那里	-2601
显神通	-2602
有手段	-2603
有百十	-2604
老施主	-2605
行者才	-2606
见他们	-2607
还不曾	-2608
这才是	-2609
通天河	-2610
降妖杖	-2611
六丁六甲	-2612
山神土地	-2613
文武多官	-2614
现了本象	-2615
心中暗想道	-2616
▁亲	-2617
▁似	-2618
▁八	-2619
▁恐	-2620
▁故	-2621
▁数	-2622
▁洞	-2623
▁真	-2624
▁石	-2625
▁管	-2626
▁钯	-2627
▁顶	-2628
▁飞	-2629
。’	-2630
一卷	-2631
一块	-2632
一边	-2633
一难	-2634
一顶	-2635
七星	-2636
丈夫	-2637
三宫	-2638
上岸	-2639
下落	-2640
不绝	-2641
且不	-2642
东南	-2643
两人	-2644
两扇	-2645
举起	-2646
之辈	-2647
乌鸡	-2648
九个	-2649
也就	-2650
也没	-2651
令牌	-2652
众怪	-2653
众臣	-2654
伤生	-2655
住处	-2656
何不	-2657
何以	-2658
作怪	-2659
你休	-2660
你等	-2661
假的	-2662
几乎	-2663
几句	-2664
出一	-2665
出洞	-2666
别处	-2667
到他	-2668
化些	-2669
十数	-2670
半夜	-2671
半晌	-2672
南北	-2673
却来	-2674
又无	-2675
又要	-2676
叫唤	-2677
吃的	-2678
向南	-2679
商量	-2680
喧哗	-2681
四面	-2682
在你	-2683
在路	-2684
城门	-2685
多心	-2686
大神	-2687
太平	-2688
头一	-2689
奇花	-2690
姓孙	-2691
嫂嫂	-2692
宝象	-2693
家家	-2694
寇家	-2695
尽力	-2696
岭上	-2697
差来	-2698
年年	-2699
庄上	-2700
弥勒	-2701
彩云	-2702
往里	-2703
径奔	-2704
径来	-2705
径直	-2706
待要	-2707
心肝	-2708
忘了	-2709
快走	-2710
息怒	-2711
感谢	-2712
我老	-2713
我门	-2714
手持	-2715
打的	-2716
把腰	-2717
护教	-2718
担子	-2719
拖着	-2720
拜为	-2721
拦住	-2722
拴在	-2723
拽步	-2724
指望	-2725
捻诀	-2726
携手	-2727
摇头	-2728
救人	-2729
文书	-2730
施礼	-2731
无光	-2732
无处	-2733
无量	-2734
早见	-2735
春娇	-2736
是也	-2737
有多	-2738
有道	-2739
有那	-2740
朦胧	-2741
本寺	-2742
束了	-2743
来往	-2744
来打	-2745
柱上	-2746
梆铃	-2747
正当	-2748
正要	-2749
毂辘	-2750
涧边	-2751
混沌	-2752
火来	-2753
灯光	-2754
照顾	-2755
父亲	-2756
独自	-2757
玲珑	-2758
瑶草	-2759
男子	-2760
的事	-2761
相助	-2762
省悟	-2763
真实	-2764
睡下	-2765
神威	-2766
米饭	-2767
精灵	-2768
绳索	-2769
缰绳	-2770
美人	-2771
老小	-2772
肚子	-2773
自幼	-2774
舅爷	-2775
舍利	-2776
若肯	-2777
藏了	-2778
虎狼	-2779
褊衫	-2780
要见	-2781
观里	-2782
解开	-2783
认了	-2784
识得	-2785
说来	-2786
诸神	-2787
走走	-2788
足踏	-2789
软筋	-2790
这条	-2791
这泼	-2792
这番	-2793
进洞	-2794
进退	-2795
送他	-2796
送出	-2797
遍地	-2798
金铙	-2799
长者	-2800
门下	-2801
险峻	-2802
随即	-2803
须要	-2804
馍馍	-2805
马来	-2806
骨都	-2807
高低	-2808
黄门	-2809
▁一声	-2810
▁如今	-2811
▁小妖	-2812
▁我等	-2813
一时间	-2814
不觉的	-2815
了我的	-2816
再不敢	-2817
只说是	-2818
喝一声	-2819
将下来	-2820
布直裰	-2821
忽见那	-2822
我们都	-2823
我怎么	-2824
暗笑道	-2825
的一个	-2826
老官儿	-2827
蒙菩萨	-2828
虎皮裙	-2829
行者却	-2830
躬身道	-2831
这两个	-2832
这泼猴	-2833
那三藏	-2834
那公主	-2835
▁你看他	-2836
▁那妖精	-2837
保护唐僧	-2838
倒身下拜	-2839
大惊失色	-2840
抖擞精神	-2841
牵马挑担	-2842
碗来粗细	-2843
行者上前	-2844
行者喝道	-2845
走出一个	-2846
送我师父	-2847
你是那里来的	-2848
▁以	-2849
▁养	-2850
▁力	-2851
▁君	-2852
▁转	-2853
▁通	-2854
一望	-2855
一杯	-2856
一柄	-2857
一棍	-2858
下山	-2859
不中	-2860
不干	-2861
不该	-2862
丝绳	-2863
之前	-2864
之地	-2865
之数	-2866
九十	-2867
了罢	-2868
二怪	-2869
五色	-2870
人事	-2871
人子	-2872
他便	-2873
他这	-2874
你怎	-2875
你把	-2876
使出	-2877
侍奉	-2878
依旧	-2879
倒在	-2880
元神	-2881
入里	-2882
再来	-2883
劈脸	-2884
化为	-2885
医治	-2886
即令	-2887
却把	-2888
却被	-2889
又恐	-2890
又请	-2891
只情	-2892
号令	-2893
各人	-2894
同心	-2895
听着	-2896
周围	-2897
呼风	-2898
哄了	-2899
唿哨	-2900
啼哭	-2901
嘻嘻	-2902
因为	-2903
囫囵	-2904
在上	-2905
在后	-2906
坐定	-2907
城隍	-2908
大众	-2909
大字	-2910
太乙	-2911
太阴	-2912
失了	-2913
姓名	-2914
子上	-2915
孤拐	-2916
宇宙	-2917
宝山	-2918
实实	-2919
害了	-2920
富贵	-2921
寻着	-2922
将一	-2923
小童	-2924
就此	-2925
就筑	-2926
尸首	-2927
干粮	-2928
座山	-2929
归正	-2930
形容	-2931
径上	-2932
念咒	-2933
性急	-2934
恨道	-2935
惊恐	-2936
我做	-2937
我又	-2938
我和	-2939
扯扯	-2940
把你	-2941
拜了	-2942
拳头	-2943
指示	-2944
捶胸	-2945
摄去	-2946
播土	-2947
整衣	-2948
方得	-2949
无甚	-2950
日久	-2951
早间	-2952
时节	-2953
是必	-2954
有功	-2955
村舍	-2956
来家	-2957
来耶	-2958
来见	-2959
来迎	-2960
果品	-2961
水伯	-2962
水来	-2963
水的	-2964
没头	-2965
洞天	-2966
浑家	-2967
海龙	-2968
狼牙	-2969
瑞霭	-2970
甘雨	-2971
登山	-2972
相近	-2973
真的	-2974
离此	-2975
策马	-2976
累你	-2977
老母	-2978
老虎	-2979
脑后	-2980
脸的	-2981
腰里	-2982
般若	-2983
船儿	-2984
艳艳	-2985
莫哭	-2986
莫能	-2987
虔心	-2988
衣裳	-2989
见面	-2990
诸佛	-2991
谁敢	-2992
走到	-2993
赶早	-2994
越发	-2995
跳到	-2996
跳在	-2997
踪迹	-2998
身躯	-2999
辨明	-3000
进了	-3001
进朝	-3002
送还	-3003
那边	-3004
长官	-3005
闪过	-3006
闭了	-3007
问个	-3008
降魔	-3009
难脱	-3010
飞在	-3011
马的	-3012
黄花	-3013
▁不敢	-3014
▁与他	-3015
▁也不	-3016
▁僧道	-3017
▁出来	-3018
▁原来	-3019
▁只见	-3020
▁教他	-3021
▁此时	-3022
▁藏道	-3023
▁见那	-3024
不认得	-3025
你如今	-3026
便罢了	-3027
光禄寺	-3028
决不敢	-3029
冷笑道	-3030
凤仙郡	-3031
听见道	-3032
妇人道	-3033
往上一	-3034
怎见得	-3035
我不曾	-3036
我们也	-3037
有一事	-3038
有许多	-3039
的宝贝	-3040
礼拜道	-3041
笑吟吟	-3042
等老猪	-3043
老怪道	-3044
耳朵里	-3045
般兵器	-3046
若不是	-3047
见一个	-3048
认得他	-3049
贫僧是	-3050
走近前	-3051
软筋麻	-3052
这一个	-3053
这不是	-3054
那壁厢	-3055
那菩萨	-3056
那里有	-3057
那里边	-3058
金光寺	-3059
问他一	-3060
▁不多时	-3061
▁孙行者	-3062
一根毫毛	-3063
半个时辰	-3064
喝了一声	-3065
在半空中	-3066
战兢兢的	-3067
行者骂道	-3068
袖中取出	-3069
西天取经	-3070
陈了一遍	-3071
▁却说行者	-3072
▁却说孙大圣	-3073
往西天拜佛求经	-3074
▁但	-3075
▁作	-3076
▁功	-3077
▁夜	-3078
▁已	-3079
▁恩	-3080
▁本	-3081
▁爷	-3082
▁用	-3083
▁盘	-3084
▁而	-3085
▁耳	-3086
▁遂	-3087
▁随	-3088
》。	-3089
一似	-3090
一束	-3091
万物	-3092
三魔	-3093
下面	-3094
不亚	-3095
不便	-3096
不到	-3097
不安	-3098
不忍	-3099
不死	-3100
东阁	-3101
两口	-3102
两日	-3103
两界	-3104
举着	-3105
乔松	-3106
也要	-3107
了性	-3108
人了	-3109
人身	-3110
众仙	-3111
会同	-3112
何往	-3113
作礼	-3114
公道	-3115
关门	-3116
冲天	-3117
刚才	-3118
到处	-3119
前者	-3120
劈面	-3121
劝善	-3122
区处	-3123
十个	-3124
发了	-3125
受苦	-3126
各自	-3127
向东	-3128
君子	-3129
呐喊	-3130
哄我	-3131
哭道	-3132
唤雨	-3133
唱个	-3134
商议	-3135
喊道	-3136
回至	-3137
回话	-3138
国中	-3139
地名	-3140
夜叉	-3141
夜间	-3142
大力	-3143
大闹	-3144
头疼	-3145
女官	-3146
好山	-3147
好的	-3148
婆子	-3149
安身	-3150
对对	-3151
小心	-3152
就于	-3153
峻岭	-3154
平府	-3155
年幼	-3156
府县	-3157
弄个	-3158
彩雾	-3159
往上	-3160
心里	-3161
忍着	-3162
忽失	-3163
成了	-3164
我要	-3165
才然	-3166
打上	-3167
扬尘	-3168
抢去	-3169
抬轿	-3170
拜道	-3171
指教	-3172
摆开	-3173
文牒	-3174
断了	-3175
斯文	-3176
方好	-3177
旋风	-3178
无不	-3179
无方	-3180
无计	-3181
有罪	-3182
来历	-3183
来有	-3184
查勘	-3185
正好	-3186
正殿	-3187
此乃	-3188
水中	-3189
求雨	-3190
沐浴	-3191
洗澡	-3192
流水	-3193
灼灼	-3194
炉中	-3195
烘烘	-3196
照旧	-3197
狐狸	-3198
狼虫	-3199
猴道	-3200
王母	-3201
现在	-3202
甘露	-3203
甚喜	-3204
畜生	-3205
痛哭	-3206
相逢	-3207
相随	-3208
真身	-3209
眼色	-3210
知他	-3211
知觉	-3212
神洲	-3213
秉教	-3214
立定	-3215
站在	-3216
竹节	-3217
簇簇	-3218
紫金	-3219
纵起	-3220
缥缈	-3221
翠云	-3222
背上	-3223
背后	-3224
脚下	-3225
腮边	-3226
落伽	-3227
蜻蜓	-3228
行事	-3229
行动	-3230
行走	-3231
衣冠	-3232
西域	-3233
西来	-3234
要他	-3235
谢道	-3236
贤徒	-3237
走上	-3238
跌脚	-3239
还你	-3240
连马	-3241
道童	-3242
那人	-3243
郎君	-3244
都去	-3245
金灯	-3246
金蝉	-3247
针儿	-3248
钟鼓	-3249
钢叉	-3250
问曰	-3251
阿傩	-3252
随着	-3253
领命	-3254
领着	-3255
风云	-3256
香案	-3257
香风	-3258
驮着	-3259
驾起	-3260
骷髅	-3261
高下	-3262
鱼精	-3263
鹿力	-3264
黑汉	-3265
龙子	-3266
▁什么	-3267
▁宝贝	-3268
▁这个	-3269
不得我	-3270
两银子	-3271
了行李	-3272
二十四	-3273
关文牒	-3274
半个不	-3275
四下里	-3276
在身上	-3277
女子道	-3278
好便似	-3279
如何得	-3280
容分说	-3281
小王子	-3282
弥陀佛	-3283
当驾官	-3284
心惊道	-3285
怎的好	-3286
我们且	-3287
我们去	-3288
把八戒	-3289
有何难	-3290
樵子道	-3291
水晶宫	-3292
猪悟能	-3293
的徒弟	-3294
的手段	-3295
看不尽	-3296
祸事了	-3297
老大王	-3298
诚所谓	-3299
赶上前	-3300
跳起来	-3301
身躲过	-3302
这长老	-3303
那罗刹	-3304
那老怪	-3305
那里肯	-3306
金星道	-3307
骨都都	-3308
▁好行者	-3309
▁那行者	-3310
师父放心	-3311
念动真言	-3312
怕他怎的	-3313
通关文牒	-3314
长老闻言	-3315
▁《	-3316
▁内	-3317
▁土	-3318
▁实	-3319
▁情	-3320
▁死	-3321
▁纵	-3322
▁色	-3323
▁酒	-3324
▁齐	-3325
一二	-3326
一夜	-3327
一天	-3328
一指	-3329
一样	-3330
一点	-3331
上国	-3332
下殿	-3333
不与	-3334
不多	-3335
不比	-3336
不生	-3337
不稳	-3338
东胜	-3339
举步	-3340
之喜	-3341
之遥	-3342
也好	-3343
也还	-3344
也难	-3345
乱谈	-3346
亏了	-3347
五七	-3348
五谷	-3349
人哩	-3350
人说	-3351
他为	-3352
传报	-3353
传经	-3354
伤他	-3355
你今	-3356
你先	-3357
你再	-3358
你在	-3359
你快	-3360
你自	-3361
便打	-3362
便要	-3363
便走	-3364
便问	-3365
保你	-3366
俱无	-3367
僮仆	-3368
元阳	-3369
内外	-3370
冷笑	-3371
凤楼	-3372
凶顽	-3373
出身	-3374
刀砍	-3375
分毫	-3376
千山	-3377
千般	-3378
却要	-3379
双双	-3380
取胜	-3381
只当	-3382
可的	-3383
吃斋	-3384
吃饭	-3385
吊桶	-3386
后妃	-3387
吓得	-3388
吾师	-3389
吾等	-3390
喊声	-3391
嘤的	-3392
回家	-3393
围住	-3394
地里	-3395
坐于	-3396
大事	-3397
大笑	-3398
头巾	-3399
奉承	-3400
嫔妃	-3401
宝阁	-3402
宫殿	-3403
家私	-3404
寿山	-3405
将就	-3406
将这	-3407
山下	-3408
山前	-3409
岂知	-3410
帝王	-3411
幌金	-3412
应道	-3413
异香	-3414
必须	-3415
念了	-3416
忽闻	-3417
怎肯	-3418
怪石	-3419
惊醒	-3420
感激	-3421
我为	-3422
我今	-3423
打劫	-3424
打扫	-3425
托塔	-3426
把嘴	-3427
投西	-3428
拜求	-3429
拯救	-3430
捆住	-3431
揭了	-3432
摆布	-3433
摸摸	-3434
撞入	-3435
收上	-3436
放开	-3437
敢问	-3438
整治	-3439
旧路	-3440
明珠	-3441
星辰	-3442
是以	-3443
晚了	-3444
有二	-3445
有眼	-3446
松柏	-3447
果有	-3448
枯松	-3449
柜里	-3450
此是	-3451
殷勤	-3452
毗卢	-3453
水河	-3454
水里	-3455
汪汪	-3456
没个	-3457
波罗	-3458
活的	-3459
灯笼	-3460
焰焰	-3461
熟了	-3462
牌儿	-3463
狮精	-3464
理会	-3465
甚事	-3466
的小	-3467
相同	-3468
看你	-3469
睁睛	-3470
瞌睡	-3471
祖宗	-3472
筵席	-3473
简帖	-3474
紫竹	-3475
给孤	-3476
胡谈	-3477
自从	-3478
舍下	-3479
若干	-3480
草里	-3481
行到	-3482
街上	-3483
装了	-3484
装天	-3485
解得	-3486
解放	-3487
谢你	-3488
贵处	-3489
跟前	-3490
跟随	-3491
踏着	-3492
身来	-3493
轮起	-3494
辟尘	-3495
这伙	-3496
远远	-3497
迭迭	-3498
退了	-3499
道理	-3500
金铃	-3501
钻在	-3502
铁扇	-3503
长的	-3504
阿罗	-3505
除了	-3506
顶礼	-3507
预先	-3508
飞入	-3509
飞腾	-3510
食肠	-3511
香茶	-3512
驾雾	-3513
高坐	-3514
鬼使	-3515
鸡鸣	-3516
黄昏	-3517
龙马	-3518
▁今日	-3519
▁是个	-3520
▁真个	-3521
▁见了	-3522
▁这一	-3523
▁那个	-3524
▁那些	-3525
个大字	-3526
五百年	-3527
他出来	-3528
伶俐虫	-3529
低着头	-3530
使一个	-3531
僧官道	-3532
即变做	-3533
却只是	-3534
听见说	-3535
咬着牙	-3536
响一声	-3537
好去处	-3538
好道也	-3539
宝象国	-3540
对行者	-3541
将行李	-3542
彀多时	-3543
怎么敢	-3544
慌得个	-3545
我与他	-3546
我大王	-3547
我是个	-3548
我本是	-3549
我问你	-3550
拔了一	-3551
拿了去	-3552
拿住他	-3553
搀起道	-3554
救我一	-3555
斗牛宫	-3556
暗想道	-3557
有三十	-3558
有二十	-3559
根毫毛	-3560
欠身道	-3561
沙悟净	-3562
泼猢狲	-3563
火云洞	-3564
烧火的	-3565
着两个	-3566
答礼道	-3567
红孩儿	-3568
芭蕉洞	-3569
行者把	-3570
走了风	-3571
这里来	-3572
那些人	-3573
那唐僧	-3574
那太子	-3575
那妈妈	-3576
那猴子	-3577
那童子	-3578
那老妖	-3579
那郡侯	-3580
金圣宫	-3581
霎时间	-3582
▁沙僧道	-3583
东洋大海	-3584
八戒闻言	-3585
叫做什么	-3586
哪吒太子	-3587
四值功曹	-3588
天色将晚	-3589
念声咒语	-3590
怎生打扮	-3591
慌了手脚	-3592
是个妖精	-3593
是孙行者	-3594
等老孙去	-3595
肉眼凡胎	-3596
行者近前	-3597
说那里话	-3598
那些小妖	-3599
那容分说	-3600
金山兜山	-3601
魂飞魄散	-3602
我把你这个	-3603
行者暗笑道	-3604
五百年前大闹天宫	-3605
,“	-3606
▁位	-3607
▁修	-3608
▁动	-3609
▁化	-3610
▁取	-3611
▁向	-3612
▁推	-3613
▁月	-3614
▁欲	-3615
▁殿	-3616
▁清	-3617
▁甚	-3618
▁礼	-3619
▁细	-3620
▁须	-3621
▁饭	-3622
一伙	-3623
一心	-3624
一抖	-3625
一来	-3626
一番	-3627
一看	-3628
三四	-3629
三字	-3630
三市	-3631
三清	-3632
上邦	-3633
下官	-3634
下海	-3635
不从	-3636
不听	-3637
不善	-3638
不论	-3639
不语	-3640
两三	-3641
之僧	-3642
之所	-3643
之路	-3644
也无	-3645
乱筑	-3646
事的	-3647
二字	-3648
人情	-3649
他都	-3650
仙山	-3651
会使	-3652
伤命	-3653
何日	-3654
佛像	-3655
你我	-3656
你虽	-3657
便也	-3658
俗语	-3659
假变	-3660
做贼	-3661
先吃	-3662
光佛	-3663
再看	-3664
凄惨	-3665
凌空	-3666
凶恶	-3667
刀来	-3668
到我	-3669
前番	-3670
前行	-3671
十世	-3672
半截	-3673
南方	-3674
又去	-3675
发起	-3676
受罪	-3677
口儿	-3678
吃些	-3679
后来	-3680
周天	-3681
回本	-3682
回身	-3683
回避	-3684
围绕	-3685
圆满	-3686
圣旨	-3687
在内	-3688
地藏	-3689
城外	-3690
塔上	-3691
天仙	-3692
好似	-3693
好风	-3694
孤直	-3695
安在	-3696
安寝	-3697
定性	-3698
定风	-3699
宝刀	-3700
客人	-3701
害我	-3702
寒光	-3703
寻些	-3704
少顷	-3705
就当	-3706
山川	-3707
峰头	-3708
崖上	-3709
左边	-3710
已毕	-3711
年老	-3712
幸亏	-3713
幸得	-3714
幽冥	-3715
弄风	-3716
张口	-3717
强似	-3718
往下	-3719
往那	-3720
得见	-3721
得道	-3722
微微	-3723
忽的	-3724
怒发	-3725
恨苦	-3726
慈云	-3727
慌张	-3728
慢来	-3729
成亲	-3730
我与	-3731
我当	-3732
手执	-3733
手里	-3734
打倒	-3735
打我	-3736
托着	-3737
扛子	-3738
扯着	-3739
找路	-3740
抵敌	-3741
拜请	-3742
捏着	-3743
揭开	-3744
搅海	-3745
摇摆	-3746
摇身	-3747
撞着	-3748
收降	-3749
放出	-3750
救出	-3751
救师	-3752
敖顺	-3753
教诲	-3754
文殊	-3755
斋吃	-3756
断乎	-3757
无情	-3758
早哩	-3759
早是	-3760
昨夜	-3761
晚斋	-3762
景致	-3763
替我	-3764
有亲	-3765
有力	-3766
有劳	-3767
朝门	-3768
本处	-3769
杀人	-3770
条条	-3771
林寺	-3772
格子	-3773
榜文	-3774
此事	-3775
此地	-3776
毒手	-3777
沉吟	-3778
法术	-3779
泪如	-3780
泼物	-3781
洞内	-3782
浮屠	-3783
清华	-3784
满山	-3785
滴泪	-3786
漠漠	-3787
火气	-3788
灯来	-3789
珍楼	-3790
皈正	-3791
盘儿	-3792
相会	-3793
相搀	-3794
相识	-3795
真人	-3796
真如	-3797
着哩	-3798
石屏	-3799
端坐	-3800
等物	-3801
管情	-3802
管教	-3803
索子	-3804
纱亭	-3805
经卷	-3806
羊力	-3807
翻江	-3808
老僧	-3809
而入	-3810
腾那	-3811
自来	-3812
花香	-3813
若到	-3814
莫管	-3815
行脚	-3816
被你	-3817
被那	-3818
见有	-3819
观之	-3820
讲话	-3821
诚为	-3822
调和	-3823
贫道	-3824
走石	-3825
赶至	-3826
跟我	-3827
跪倒	-3828
路的	-3829
跳过	-3830
连日	-3831
迟疑	-3832
适间	-3833
通报	-3834
邪正	-3835
金头	-3836
铜锤	-3837
铺设	-3838
错了	-3839
陈澄	-3840
隐隐	-3841
雨顺	-3842
面上	-3843
顽耍	-3844
风调	-3845
饥了	-3846
馆中	-3847
香烟	-3848
马前	-3849
鹅笼	-3850
麒麟	-3851
黑气	-3852
龙孙	-3853
龙山	-3854
▁一座	-3855
▁二人	-3856
▁他就	-3857
▁众僧	-3858
▁圣僧	-3859
▁太子	-3860
▁头戴	-3861
▁如来	-3862
▁故此	-3863
▁是我	-3864
▁诗曰	-3865
▁进去	-3866
上写着	-3867
上西方	-3868
不一时	-3869
不消讲	-3870
他如今	-3871
你上来	-3872
你这厮	-3873
使钉钯	-3874
关了门	-3875
到西天	-3876
半空里	-3877
又不曾	-3878
又闻得	-3879
吃了一	-3880
吃他一	-3881
启奏道	-3882
在此处	-3883
安排些	-3884
山坡下	-3885
往下一	-3886
忽闻得	-3887
怎么得	-3888
急转身	-3889
悟空道	-3890
我如今	-3891
我怎的	-3892
打了一	-3893
按云头	-3894
挑着担	-3895
放声大	-3896
暗喜道	-3897
更不知	-3898
有何事	-3899
有本事	-3900
望行者	-3901
束一束	-3902
来得好	-3903
枯松涧	-3904
沙僧也	-3905
清风道	-3906
的不是	-3907
的儿子	-3908
答应道	-3909
老僧道	-3910
苍蝇儿	-3911
行者闻	-3912
被妖精	-3913
这个是	-3914
这许多	-3915
那妖怪	-3916
那怪的	-3917
那话儿	-3918
面前道	-3919
顷刻间	-3920
▁我师父	-3921
▁正说处	-3922
一个个都	-3923
三个徒弟	-3924
不知好歹	-3925
与他交战	-3926
与他赌斗	-3927
两班文武	-3928
咄的一声	-3929
四个和尚	-3930
对唐僧道	-3931
把金箍棒	-3932
护教伽蓝	-3933
抬头观看	-3934
现了原身	-3935
现出本相	-3936
行者见他	-3937
那妇人道	-3938
那怪闻言	-3939
阿弥陀佛	-3940
饶你性命	-3941
驾筋斗云	-3942
观世音菩萨	-3943
这一场好杀	-3944
▁乱	-3945
▁休	-3946
▁兵	-3947
▁和	-3948
▁啊	-3949
▁尽	-3950
▁应	-3951
▁座	-3952
▁息	-3953
▁报	-3954
▁杖	-3955
▁松	-3956
▁根	-3957
▁次	-3958
▁没	-3959
▁留	-3960
▁笑	-3961
▁紧	-3962
▁虎	-3963
▁贝	-3964
▁近	-3965
▁黑	-3966
》、	-3967
一年	-3968
一念	-3969
一派	-3970
一连	-3971
一遍	-3972
一钯	-3973
丈二	-3974
三股	-3975
不胜	-3976
不起	-3977
与人	-3978
世上	-3979
丛中	-3980
东来	-3981
丢开	-3982
两头	-3983
为僧	-3984
为师	-3985
之仇	-3986
之气	-3987
之难	-3988
九曜	-3989
也只	-3990
也都	-3991
乱石	-3992
争竞	-3993
二门	-3994
于地	-3995
云来	-3996
五六	-3997
五日	-3998
人言	-3999
他做	-4000
仙境	-4001
伏在	-4002
众猴	-4003
优婆	-4004
会上	-4005
伤害	-4006
似此	-4007
似这	-4008
低了	-4009
何用	-4010
作个	-4011
你听	-4012
你想	-4013
你都	-4014
便教	-4015
儿去	-4016
光辉	-4017
兜率	-4018
八个	-4019
再走	-4020
再问	-4021
几何	-4022
凡间	-4023
出入	-4024
功成	-4025
功绩	-4026
动静	-4027
即是	-4028
即着	-4029
原因	-4030
参拜	-4031
又使	-4032
又怕	-4033
及至	-4034
取得	-4035
叨叨	-4036
叫战	-4037
叮当	-4038
号山	-4039
叹道	-4040
吃吾	-4041
吃素	-4042
吵闹	-4043
命的	-4044
哥呀	-4045
哭哩	-4046
嚷嚷	-4047
四散	-4048
四方	-4049
回国	-4050
回心	-4051
园里	-4052
块肉	-4053
堂上	-4054
处治	-4055
大将	-4056
大慈	-4057
太白	-4058
头目	-4059
奔波	-4060
好不	-4061
好善	-4062
妖贼	-4063
子道	-4064
宫里	-4065
寇梁	-4066
寡妇	-4067
对手	-4068
寻你	-4069
寻找	-4070
小可	-4071
少年	-4072
就该	-4073
崎岖	-4074
嵯峨	-4075
州城	-4076
差官	-4077
巴山	-4078
带了	-4079
幌亮	-4080
干戈	-4081
开言	-4082
归真	-4083
当胸	-4084
快拿	-4085
怀里	-4086
恐他	-4087
恐惧	-4088
恼了	-4089
意欲	-4090
所在	-4091
扇息	-4092
才说	-4093
打出	-4094
打进	-4095
扫塔	-4096
扫荡	-4097
扶持	-4098
扶着	-4099
报知	-4100
抵住	-4101
拂云	-4102
拄着	-4103
拿你	-4104
拿得	-4105
指头	-4106
捧着	-4107
推开	-4108
搀着	-4109
撒泼	-4110
收去	-4111
放马	-4112
救苦	-4113
散火	-4114
整齐	-4115
斋来	-4116
方知	-4117
施为	-4118
无二	-4119
无根	-4120
无火	-4121
无言	-4122
无路	-4123
旧年	-4124
时候	-4125
昂昂	-4126
昆仑	-4127
明明	-4128
显圣	-4129
有名	-4130
有意	-4131
有经	-4132
来国	-4133
来赶	-4134
柳树	-4135
桃子	-4136
桌椅	-4137
梅花	-4138
森罗	-4139
横担	-4140
此怪	-4141
步行	-4142
歹人	-4143
毒魔	-4144
水府	-4145
水流	-4146
污了	-4147
洞主	-4148
活佛	-4149
流泪	-4150
海上	-4151
海角	-4152
消灾	-4153
满堂	-4154
满眼	-4155
火龙	-4156
灭了	-4157
灵根	-4158
烧得	-4159
爬上	-4160
牌位	-4161
牛头	-4162
牵着	-4163
猛虎	-4164
獠牙	-4165
玄英	-4166
王府	-4167
琵琶	-4168
甚人	-4169
生了	-4170
百姓	-4171
的好	-4172
着的	-4173
石匣	-4174
神思	-4175
稳坐	-4176
空里	-4177
童男	-4178
簇拥	-4179
精细	-4180
纵然	-4181
细看	-4182
结果	-4183
绣花	-4184
罪名	-4185
翅飞	-4186
老拙	-4187
脱下	-4188
腹中	-4189
良久	-4190
若说	-4191
苦楚	-4192
茶钟	-4193
莫嚷	-4194
蛟龙	-4195
西海	-4196
认认	-4197
讲经	-4198
许久	-4199
诳语	-4200
说声	-4201
说说	-4202
请进	-4203
豆腐	-4204
贺洲	-4205
贼怪	-4206
走得	-4207
赴会	-4208
赶他	-4209
路口	-4210
路径	-4211
路途	-4212
路遇	-4213
路阻	-4214
轮着	-4215
边前	-4216
过的	-4217
还丹	-4218
还好	-4219
道路	-4220
邀请	-4221
那家	-4222
配合	-4223
金莲	-4224
铁棍	-4225
门儿	-4226
问及	-4227
防备	-4228
阶下	-4229
降伏	-4230
难得	-4231
青松	-4232
项事	-4233
颈项	-4234
风声	-4235
风来	-4236
风雨	-4237
风雾	-4238
魔障	-4239
鳜婆	-4240
鹰愁	-4241
黎民	-4242
默默	-4243
龙女	-4244
龙神	-4245
▁不得	-4246
▁与我	-4247
▁了一	-4248
▁人家	-4249
▁十分	-4250
▁四众	-4251
▁师兄	-4252
▁想是	-4253
▁所以	-4254
▁收了	-4255
▁西方	-4256
▁铁棒	-4257
▁魔王	-4258
一则是	-4259
七星剑	-4260
上大路	-4261
不出来	-4262
两三个	-4263
两界山	-4264
个和尚	-4265
也不能	-4266
了唐僧	-4267
五凤楼	-4268
他本是	-4269
他生得	-4270
你们都	-4271
你这等	-4272
保师父	-4273
修行的	-4274
倚海龙	-4275
先锋道	-4276
到此处	-4277
即传旨	-4278
去不得	-4279
又问道	-4280
取披挂	-4281
只是要	-4282
呼呼的	-4283
唱个大	-4284
在腰间	-4285
垂泪道	-4286
实不瞒	-4287
害怕道	-4288
将来也	-4289
将来了	-4290
岂不知	-4291
差来的	-4292
师父莫	-4293
张开口	-4294
得粉碎	-4295
怎生得	-4296
我等是	-4297
我记得	-4298
我那里	-4299
把我们	-4300
搭包儿	-4301
是行者	-4302
暴纱亭	-4303
有七八	-4304
有来有	-4305
杨柳枝	-4306
正行时	-4307
比丘国	-4308
泪汪汪	-4309
淋淋的	-4310
然不惧	-4311
然不见	-4312
狼牙棒	-4313
猛抬头	-4314
现原身	-4315
看见他	-4316
睡着了	-4317
穿一领	-4318
罗刹道	-4319
老君道	-4320
自古道	-4321
舍不得	-4322
落伽山	-4323
行者叫	-4324
行者将	-4325
被他一	-4326
被老孙	-4327
见唐僧	-4328
见如来	-4329
认不得	-4330
贫僧乃	-4331
迎着道	-4332
这壁厢	-4333
这宝贝	-4334
这早晚	-4335
送唐僧	-4336
那大仙	-4337
那妖邪	-4338
那沙僧	-4339
那皇帝	-4340
那道人	-4341
金平府	-4342
金睛兽	-4343
问他个	-4344
闻言道	-4345
驿丞道	-4346
黄门官	-4347
▁只听得	-4348
▁沙和尚	-4349
▁猪八戒	-4350
▁这行者	-4351
一拥上前	-4352
你怎么就	-4353
侧身躲过	-4354
南天门里	-4355
坐在上面	-4356
大小群妖	-4357
大雷音寺	-4358
延寿长生	-4359
心惊胆战	-4360
打听打听	-4361
的是什么	-4362
跳将起去	-4363
那些和尚	-4364
问他一问	-4365
▁却说三藏	-4366
一把扯住道	-4367
心中暗喜道	-4368
是那里来的	-4369
毛脸雷公嘴	-4370
▁东	-4371
▁发	-4372
▁古	-4373
▁合	-4374
▁告	-4375
▁响	-4376
▁喜	-4377
▁士	-4378
▁奉	-4379
▁平	-4380
▁待	-4381
▁性	-4382
▁恶	-4383
▁摇	-4384
▁收	-4385
▁散	-4386
▁星	-4387
▁春	-4388
▁服	-4389
▁望	-4390
▁树	-4391
▁样	-4392
▁点	-4393
▁皆	-4394
▁直	-4395
▁睡	-4396
▁祖	-4397
▁筑	-4398
▁肯	-4399
▁脚	-4400
▁舞	-4401
▁草	-4402
▁象	-4403
▁进	-4404
▁降	-4405
一嘴	-4406
一回	-4407
一宿	-4408
一对	-4409
一盘	-4410
一窝	-4411
一脚	-4412
一躬	-4413
万圣	-4414
三事	-4415
上挂	-4416
下的	-4417
不妨	-4418
不相	-4419
不离	-4420
不良	-4421
不说	-4422
不迟	-4423
东边	-4424
临行	-4425
丹盘	-4426
为此	-4427
之故	-4428
之水	-4429
之精	-4430
乌巢	-4431
九曲	-4432
了担	-4433
二老	-4434
亏你	-4435
井木	-4436
亭子	-4437
人人	-4438
人心	-4439
人烟	-4440
他不	-4441
他会	-4442
他到	-4443
他将	-4444
他曾	-4445
他有	-4446
他要	-4447
他门	-4448
仙子	-4449
仙洞	-4450
仙长	-4451
仰视	-4452
休得	-4453
传了	-4454
但有	-4455
住他	-4456
佛地	-4457
你做	-4458
使者	-4459
供献	-4460
便叫	-4461
修持	-4462
修真	-4463
儿也	-4464
儿啊	-4465
光头	-4466
光彩	-4467
免得	-4468
再莫	-4469
凡夫	-4470
出宫	-4471
出气	-4472
初时	-4473
到得	-4474
前走	-4475
剖开	-4476
劝解	-4477
十四	-4478
千条	-4479
半月	-4480
半盏	-4481
半雾	-4482
卖弄	-4483
即取	-4484
却如	-4485
却教	-4486
厅上	-4487
又到	-4488
又弄	-4489
又至	-4490
取来	-4491
口国	-4492
口称	-4493
可不	-4494
名号	-4495
吐出	-4496
君道	-4497
听我	-4498
哼哼	-4499
唤名	-4500
善果	-4501
四人	-4502
回洞	-4503
圣婴	-4504
在前	-4505
在外	-4506
在心	-4507
地府	-4508
坐坐	-4509
垂泪	-4510
多人	-4511
大话	-4512
大门	-4513
大鹏	-4514
天阴	-4515
太保	-4516
太公	-4517
头的	-4518
奔西	-4519
好意	-4520
如飞	-4521
姐姐	-4522
姓陈	-4523
婴儿	-4524
嫦娥	-4525
子母	-4526
官人	-4527
害人	-4528
家僮	-4529
家儿	-4530
家里	-4531
容貌	-4532
寇洪	-4533
察理	-4534
将近	-4535
小女	-4536
小猴	-4537
就似	-4538
尾巴	-4539
山路	-4540
山高	-4541
岂不	-4542
差人	-4543
带得	-4544
常时	-4545
常言	-4546
帽子	-4547
平安	-4548
庄院	-4549
应声	-4550
府上	-4551
引路	-4552
彩女	-4553
得一	-4554
得是	-4555
快来	-4556
怎知	-4557
怕你	-4558
思道	-4559
性子	-4560
怪哉	-4561
总兵	-4562
恐有	-4563
悬崖	-4564
惠岸	-4565
想起	-4566
愈加	-4567
成真	-4568
我佛	-4569
我倒	-4570
我在	-4571
房舍	-4572
打水	-4573
打碎	-4574
执了	-4575
折辨	-4576
报信	-4577
招呼	-4578
拜上	-4579
拿到	-4580
指着	-4581
掣棒	-4582
掣电	-4583
接着	-4584
措手	-4585
提着	-4586
揪住	-4587
摆上	-4588
摸着	-4589
放我	-4590
放起	-4591
旁门	-4592
无形	-4593
无忧	-4594
无物	-4595
无缘	-4596
无道	-4597
早到	-4598
早有	-4599
早至	-4600
星斗	-4601
是有	-4602
更有	-4603
曾见	-4604
有了	-4605
有分	-4606
有声	-4607
有心	-4608
未来	-4609
本性	-4610
权为	-4611
来者	-4612
杯酒	-4613
林间	-4614
梁上	-4615
樵夫	-4616
此意	-4617
殿阁	-4618
比那	-4619
气力	-4620
水内	-4621
求取	-4622
法身	-4623
泰山	-4624
深涧	-4625
渐觉	-4626
游神	-4627
渺渺	-4628
湾环	-4629
满口	-4630
满地	-4631
满城	-4632
潺潺	-4633
火烧	-4634
灭法	-4635
灵感	-4636
点上	-4637
炼魔	-4638
热气	-4639
牙齿	-4640
特请	-4641
犹如	-4642
献茶	-4643
猱狮	-4644
猴精	-4645
甚名	-4646
甚的	-4647
生嗔	-4648
白鹿	-4649
皮袋	-4650
相别	-4651
省得	-4652
看我	-4653
眼睛	-4654
眼花	-4655
着力	-4656
睁眼	-4657
碧波	-4658
社稷	-4659
禅院	-4660
秤金	-4661
称赞	-4662
穿上	-4663
窝巢	-4664
第三	-4665
紧随	-4666
红漆	-4667
细细	-4668
经过	-4669
绳来	-4670
罄尽	-4671
群猴	-4672
群精	-4673
老子	-4674
老幼	-4675
而退	-4676
肚皮	-4677
胜境	-4678
臣等	-4679
苍狼	-4680
茫茫	-4681
莫忙	-4682
莫成	-4683
落了	-4684
蒸吃	-4685
虚头	-4686
蜘蛛	-4687
装在	-4688
西牛	-4689
西边	-4690
西进	-4691
要紧	-4692
见个	-4693
觌面	-4694
让你	-4695
论经	-4696
设法	-4697
诚心	-4698
说你	-4699
说起	-4700
请回	-4701
请来	-4702
谨慎	-4703
财物	-4704
走来	-4705
跌跌	-4706
跑到	-4707
身轻	-4708
躲离	-4709
车儿	-4710
转奏	-4711
轮回	-4712
轮开	-4713
辟暑	-4714
过河	-4715
迎敌	-4716
还他	-4717
还去	-4718
追赶	-4719
遭瘟	-4720
遮架	-4721
那知	-4722
那马	-4723
金击	-4724
銮驾	-4725
钢牙	-4726
钺斧	-4727
钻出	-4728
铁笼	-4729
长庚	-4730
闭门	-4731
闯祸	-4732
阎君	-4733
陈清	-4734
露出	-4735
面山	-4736
面筋	-4737
飕的	-4738
飞升	-4739
饮食	-4740
香炉	-4741
馥郁	-4742
高才	-4743
高耸	-4744
鸟啼	-4745
鼓乐	-4746
龙婆	-4747
▁一日	-4748
▁一条	-4749
▁上前	-4750
▁不住	-4751
▁公主	-4752
▁喝道	-4753
▁在此	-4754
▁有个	-4755
▁果然	-4756
▁看见	-4757
▁老魔	-4758
▁都是	-4759
》、《	-4760
万寿山	-4761
三怪道	-4762
三藏才	-4763
不尽道	-4764
不打你	-4765
不敢擅	-4766
不晓得	-4767
不要说	-4768
与长老	-4769
井木犴	-4770
他三个	-4771
他手下	-4772
你是个	-4773
使一条	-4774
假春娇	-4775
做和尚	-4776
入里边	-4777
出水面	-4778
分开水	-4779
又不敢	-4780
又不知	-4781
又笑道	-4782
吩咐道	-4783
唐僧等	-4784
唬得个	-4785
在路旁	-4786
大师兄	-4787
大怒道	-4788
如何不	-4789
孙长老	-4790
将上来	-4791
将下去	-4792
将唐僧	-4793
将扇子	-4794
小龙道	-4795
展开翅	-4796
弄做个	-4797
往西方	-4798
待明日	-4799
怎么样	-4800
恨不得	-4801
想必是	-4802
成正果	-4803
我也不	-4804
我兄弟	-4805
我去也	-4806
我徒弟	-4807
我这一	-4808
戴一顶	-4809
打个滚	-4810
把妖精	-4811
拂云叟	-4812
摇摆摆	-4813
收拾了	-4814
放了手	-4815
救他一	-4816
方丈中	-4817
施法力	-4818
明月道	-4819
更时候	-4820
有三百	-4821
正行处	-4822
正说处	-4823
比丘尼	-4824
没头没	-4825
玉帝道	-4826
王菩萨	-4827
白玉圭	-4828
的一般	-4829
的夯货	-4830
睛观看	-4831
管什么	-4832
翠云山	-4833
老龙王	-4834
舍利子	-4835
行者急	-4836
街三市	-4837
见八戒	-4838
轮铁棒	-4839
还有些	-4840
这一向	-4841
这孽畜	-4842
那个是	-4843
那几个	-4844
那妖道	-4845
问讯了	-4846
阳世间	-4847
顾不得	-4848
饶了你	-4849
黑水河	-4850
▁一个个	-4851
▁且不言	-4852
▁好呆子	-4853
▁第三十	-4854
▁第五十	-4855
▁第六十	-4856
▁第四十	-4857
▁菩萨道	-4858
▁那怪物	-4859
一座高山	-4860
三藏见了	-4861
不当人子	-4862
不必迟疑	-4863
东土唐朝	-4864
东胜神洲	-4865
你不知道	-4866
八戒听说	-4867
出得门来	-4868
半个不字	-4869
南天门外	-4870
四海龙王	-4871
在云端里	-4872
备言前事	-4873
天蓬元帅	-4874
怎么这等	-4875
我和你去	-4876
收拾行李	-4877
既如此说	-4878
有甚话说	-4879
磕头礼拜	-4880
纵筋斗云	-4881
腾云驾雾	-4882
西牛贺洲	-4883
要吃唐僧	-4884
还我师父	-4885
那老和尚	-4886
金头揭谛	-4887
▁毕竟不知	-4888
▁行者见了	-4889
东土大唐差	-4890
心中大怒道	-4891
▁,	-4892
▁七	-4893
▁丹	-4894
▁主	-4895
▁久	-4896
▁令	-4897
▁信	-4898
▁凡	-4899
▁华	-4900
▁反	-4901
▁唐	-4902
▁国	-4903
▁带	-4904
▁弄	-4905
▁彩	-4906
▁径	-4907
▁想	-4908
▁成	-4909
▁旧	-4910
▁未	-4911
▁杀	-4912
▁林	-4913
▁比	-4914
▁河	-4915
▁界	-4916
▁盖	-4917
▁短	-4918
▁美	-4919
▁苦	-4920
▁茶	-4921
▁跟	-4922
▁遇	-4923
▁邪	-4924
▁野	-4925
▁铜	-4926
▁阵	-4927
▁雨	-4928
▁音	-4929
一切	-4930
一副	-4931
一命	-4932
一往	-4933
七回	-4934
万古	-4935
万水	-4936
三件	-4937
三分	-4938
三天	-4939
三昧	-4940
下方	-4941
不一	-4942
不久	-4943
不伏	-4944
不劳	-4945
不回	-4946
不坏	-4947
不定	-4948
不平	-4949
不幸	-4950
不快	-4951
不想	-4952
不拘	-4953
不满	-4954
不答	-4955
与天	-4956
与这	-4957
且请	-4958
两件	-4959
两条	-4960
中堂	-4961
举目	-4962
久住	-4963
之家	-4964
之日	-4965
之神	-4966
之计	-4967
九回	-4968
乱说	-4969
乱跑	-4970
二层	-4971
云游	-4972
五回	-4973
亦无	-4974
享用	-4975
亲戚	-4976
亲手	-4977
人氏	-4978
人肉	-4979
从头	-4980
从此	-4981
从那	-4982
他人	-4983
他倒	-4984
他才	-4985
仙翁	-4986
以后	-4987
伏狸	-4988
众等	-4989
众精	-4990
伤身	-4991
伫立	-4992
伽叶	-4993
何期	-4994
佛子	-4995
佛门	-4996
你有	-4997
使使	-4998
侍婢	-4999
供来	-5000
供状	-5001
依我	-5002
侧耳	-5003
俱道	-5004
假如	-5005
元圣	-5006
全不	-5007
八卦	-5008
八大	-5009
六七	-5010
六回	-5011
六院	-5012
其余	-5013
其意	-5014
内院	-5015
军民	-5016
凌云	-5017
凛凛	-5018
出林	-5019
刚强	-5020
到底	-5021
剑戟	-5022
剿除	-5023
劈手	-5024
功德	-5025
功行	-5026
动了	-5027
劲节	-5028
劳碌	-5029
勿得	-5030
包裹	-5031
匣儿	-5032
千层	-5033
半年	-5034
南上	-5035
占了	-5036
即叫	-5037
即转	-5038
却怎	-5039
厮杀	-5040
去打	-5041
去时	-5042
参禅	-5043
又好	-5044
又惊	-5045
又遇	-5046
发放	-5047
受戒	-5048
叙坐	-5049
口气	-5050
古树	-5051
只知	-5052
台上	-5053
吃饱	-5054
各归	-5055
同众	-5056
后宫	-5057
后有	-5058
向阳	-5059
听他	-5060
启上	-5061
呻吟	-5062
哄他	-5063
哮吼	-5064
喏喏	-5065
喝采	-5066
喷云	-5067
嘴长	-5068
四老	-5069
回寺	-5070
回旨	-5071
回转	-5072
因是	-5073
国印	-5074
在洞	-5075
地网	-5076
垢泉	-5077
声响	-5078
处置	-5079
复至	-5080
夜深	-5081
夜静	-5082
大口	-5083
大展	-5084
大雪	-5085
天光	-5086
天罗	-5087
天降	-5088
头戴	-5089
头皮	-5090
夺了	-5091
好事	-5092
妃后	-5093
妙啊	-5094
安生	-5095
定了	-5096
宝座	-5097
家业	-5098
家的	-5099
容颜	-5100
宽阔	-5101
寻个	-5102
寻死	-5103
小时	-5104
就在	-5105
就教	-5106
就砍	-5107
尽心	-5108
山场	-5109
山林	-5110
岁了	-5111
布施	-5112
干柴	-5113
广目	-5114
强人	-5115
彩霞	-5116
待他	-5117
心头	-5118
心问	-5119
忘生	-5120
悲切	-5121
悲啼	-5122
感蒙	-5123
慈悯	-5124
成佛	-5125
我到	-5126
我只	-5127
我虽	-5128
我驮	-5129
战书	-5130
打来	-5131
把些	-5132
把马	-5133
抖抖	-5134
抟象	-5135
护国	-5136
抬起	-5137
拱手	-5138
挂碍	-5139
按住	-5140
捉怪	-5141
捉来	-5142
捣鬼	-5143
排宴	-5144
接过	-5145
揪着	-5146
摆驾	-5147
撞钟	-5148
擒拿	-5149
攒蹄	-5150
放行	-5151
故人	-5152
故曰	-5153
救兵	-5154
敢来	-5155
整顿	-5156
斑斓	-5157
斗到	-5158
方上	-5159
方回	-5160
旁有	-5161
旌旗	-5162
无声	-5163
无已	-5164
无状	-5165
星宿	-5166
昴日	-5167
替他	-5168
朝中	-5169
朝廷	-5170
本来	-5171
本洞	-5172
机会	-5173
杀得	-5174
来取	-5175
来至	-5176
松篁	-5177
果见	-5178
枣儿	-5179
树木	-5180
水势	-5181
水响	-5182
水怪	-5183
汉子	-5184
沉沉	-5185
泉水	-5186
法旨	-5187
法门	-5188
波浪	-5189
清水	-5190
滴滴	-5191
潇潇	-5192
点心	-5193
烈火	-5194
烧饼	-5195
烧香	-5196
照头	-5197
狡兔	-5198
猕猴	-5199
猿猴	-5200
琪花	-5201
留情	-5202
白面	-5203
的都	-5204
皆是	-5205
直上	-5206
相争	-5207
看棍	-5208
真僧	-5209
着个	-5210
着眼	-5211
着胆	-5212
着脸	-5213
睁开	-5214
知我	-5215
石上	-5216
石块	-5217
石猴	-5218
碧汉	-5219
祈雨	-5220
神功	-5221
祷祝	-5222
穿的	-5223
粉面	-5224
素酒	-5225
纠纠	-5226
红云	-5227
纵有	-5228
纵身	-5229
缘故	-5230
缚怪	-5231
老牛	-5232
老高	-5233
者行	-5234
而出	-5235
而起	-5236
耳内	-5237
耳根	-5238
肚腹	-5239
胜败	-5240
膊上	-5241
至宝	-5242
舍死	-5243
艰难	-5244
芍药	-5245
芳草	-5246
苏醒	-5247
若还	-5248
苦难	-5249
草料	-5250
荤素	-5251
莫教	-5252
菩提	-5253
蓬松	-5254
薜萝	-5255
蜂儿	-5256
行了	-5257
衣钵	-5258
要取	-5259
角鹿	-5260
诳上	-5261
说那	-5262
请了	-5263
请到	-5264
谓之	-5265
谨言	-5266
谨遵	-5267
豹头	-5268
趁此	-5269
跳起	-5270
跳道	-5271
身披	-5272
躲避	-5273
车迟	-5274
轩昂	-5275
轮枪	-5276
轮棒	-5277
辞王	-5278
辟寒	-5279
迅速	-5280
过此	-5281
还了	-5282
还在	-5283
这去	-5284
远涉	-5285
连叫	-5286
连声	-5287
连天	-5288
逃走	-5289
道场	-5290
酒来	-5291
里路	-5292
金字	-5293
金毛	-5294
金线	-5295
铁匠	-5296
铁索	-5297
银角	-5298
锁梃	-5299
锐气	-5300
错怪	-5301
锦騪	-5302
长了	-5303
长寿	-5304
门开	-5305
门扇	-5306
阴兵	-5307
陈老	-5308
陡涧	-5309
除是	-5310
随风	-5311
难分	-5312
霹雳	-5313
青脸	-5314
青霄	-5315
青鸾	-5316
非凡	-5317
须弥	-5318
须得	-5319
顽徒	-5320
领众	-5321
风头	-5322
风起	-5323
飞龙	-5324
餐风	-5325
饶我	-5326
馒头	-5327
香油	-5328
驾着	-5329
骂我	-5330
高僧	-5331
高声	-5332
黄沙	-5333
鼻孔	-5334
龙宫	-5335
▁一齐	-5336
▁不觉	-5337
▁你看	-5338
▁却不	-5339
▁去了	-5340
▁去来	-5341
▁当年	-5342
▁徒弟	-5343
▁怎的	-5344
▁是那	-5345
▁有一	-5346
▁来的	-5347
▁看看	-5348
▁罢了	-5349
▁这等	-5350
▁这般	-5351
▁道士	-5352
▁问道	-5353
一路上	-5354
丈长短	-5355
不在家	-5356
不是个	-5357
与妖精	-5358
个小妖	-5359
个窟窿	-5360
主人公	-5361
举钉钯	-5362
也不得	-5363
二大王	-5364
从那里	-5365
他不过	-5366
众和尚	-5367
众神道	-5368
但见他	-5369
你不曾	-5370
你怎的	-5371
你来了	-5372
俗语云	-5373
八戒就	-5374
出来也	-5375
到那里	-5376
匹白马	-5377
十三年	-5378
十八公	-5379
却是个	-5380
又有个	-5381
又来了	-5382
取经僧	-5383
只见他	-5384
可可的	-5385
吃了他	-5386
吆吆喝	-5387
哀告道	-5388
唿喇的	-5389
嘤嘤的	-5390
在山前	-5391
在殿上	-5392
多心经	-5393
天井中	-5394
妖怪道	-5395
妖邪道	-5396
宝林寺	-5397
寇员外	-5398
将宝贝	-5399
小行者	-5400
少时间	-5401
巽地上	-5402
布金寺	-5403
弄虚头	-5404
我们哩	-5405
我们好	-5406
我师兄	-5407
我当年	-5408
打杀了	-5409
打死了	-5410
找大路	-5411
把一个	-5412
拜谢了	-5413
救唐僧	-5414
教八戒	-5415
教沙僧	-5416
早惊动	-5417
是那个	-5418
是那方	-5419
有妖怪	-5420
满堂红	-5421
濯垢泉	-5422
灵霄殿	-5423
牛王道	-5424
玉兔儿	-5425
王父子	-5426
现本相	-5427
称谢道	-5428
精细鬼	-5429
翻筋斗	-5430
般变化	-5431
行者听	-5432
行者孙	-5433
行脚僧	-5434
观音院	-5435
让老孙	-5436
说不尽	-5437
败了阵	-5438
赛太岁	-5439
趁早儿	-5440
路旁边	-5441
那牛王	-5442
那里面	-5443
那龙王	-5444
镇元子	-5445
问他要	-5446
陈家庄	-5447
陈老道	-5448
险些儿	-5449
高老庄	-5450
黄花观	-5451
黑风山	-5452
▁慌得那	-5453
▁第七十	-5454
▁那八戒	-5455
▁那师父	-5456
一个小妖	-5457
一百一十	-5458
三般兵器	-5459
不分胜败	-5460
不能取胜	-5461
了我师父	-5462
什么宝贝	-5463
他师徒们	-5464
伶俐虫道	-5465
你原来是	-5466
侍奉香火	-5467
劈头就打	-5468
十万天兵	-5469
因保唐僧	-5470
在半空里	-5471
大圣爷爷	-5472
大小官员	-5473
感谢不尽	-5474
拿孙行者	-5475
摇摇摆摆	-5476
收上身来	-5477
收了铁棒	-5478
方便方便	-5479
有何话说	-5480
有来有去	-5481
用手指道	-5482
看见行者	-5483
西方路上	-5484
见了行者	-5485
跳将起来	-5486
这场好杀	-5487
金箍铁棒	-5488
金銮殿上	-5489
长嘴大耳	-5490
飘飘荡荡	-5491
▁三藏闻言	-5492
八戒与沙僧	-5493
取经的和尚	-5494
呵呵大笑道	-5495
唱个大喏道	-5496
孙悟空行者	-5497
把门的小妖	-5498
满心欢喜道	-5499
行者与八戒	-5500
东土大唐驾下	-5501
;“	-5502
▁丈	-5503
▁于	-5504
▁假	-5505
▁兄	-5506
▁别	-5507
▁卷	-5508
▁吹	-5509
▁器	-5510
▁坐	-5511
▁帝	-5512
▁引	-5513
▁张	-5514
▁归	-5515
▁徒	-5516
▁御	-5517
▁扇	-5518
▁护	-5519
▁招	-5520
▁掌	-5521
▁斋	-5522
▁既	-5523
▁条	-5524
▁楼	-5525
▁每	-5526
▁毛	-5527
▁流	-5528
▁矣	-5529
▁破	-5530
▁秋	-5531
▁红	-5532
▁翠	-5533
▁蒸	-5534
▁衣	-5535
▁观	-5536
▁计	-5537
▁讲	-5538
▁语	-5539
▁诸	-5540
▁谢	-5541
▁足	-5542
▁雾	-5543
▁驾	-5544
▁鬼	-5545
。“	-5546
一位	-5547
一团	-5548
一方	-5549
一滚	-5550
一纵	-5551
一股	-5552
一藏	-5553
一跌	-5554
七难	-5555
万丈	-5556
万载	-5557
丈人	-5558
三乘	-5559
三回	-5560
三尺	-5561
三岛	-5562
三更	-5563
三界	-5564
上告	-5565
上手	-5566
下肚	-5567
不伤	-5568
不堪	-5569
不大	-5570
不差	-5571
不应	-5572
不念	-5573
不才	-5574
不损	-5575
不改	-5576
不断	-5577
不明	-5578
不疼	-5579
不禁	-5580
不美	-5581
不脱	-5582
不解	-5583
不象	-5584
不转	-5585
世尊	-5586
东北	-5587
丝绦	-5588
两难	-5589
丫鬟	-5590
丰登	-5591
丹凤	-5592
为之	-5593
举手	-5594
之光	-5595
之命	-5596
乌云	-5597
九灵	-5598
九难	-5599
也尽	-5600
乱嚷	-5601
了帐	-5602
二星	-5603
二神	-5604
五更	-5605
五难	-5606
五龙	-5607
些须	-5608
亲来	-5609
人是	-5610
人行	-5611
今到	-5612
他些	-5613
他在	-5614
仙丹	-5615
仙宫	-5616
以来	-5617
以此	-5618
休怕	-5619
休言	-5620
众生	-5621
众贼	-5622
传说	-5623
伤我	-5624
伤损	-5625
似个	-5626
低下	-5627
住在	-5628
何事	-5629
何人	-5630
何故	-5631
余年	-5632
作恶	-5633
你便	-5634
你才	-5635
佳人	-5636
使用	-5637
使钯	-5638
倚着	-5639
做得	-5640
做的	-5641
健将	-5642
僧家	-5643
儿灯	-5644
先前	-5645
先来	-5646
八日	-5647
八节	-5648
六难	-5649
关保	-5650
养性	-5651
再三	-5652
再打	-5653
再无	-5654
冒犯	-5655
冷气	-5656
净了	-5657
凌虚	-5658
几步	-5659
出处	-5660
出现	-5661
分了	-5662
切齿	-5663
刽子	-5664
劝我	-5665
功完	-5666
动身	-5667
十方	-5668
千古	-5669
千岁	-5670
千金	-5671
半云	-5672
半会	-5673
半山	-5674
半点	-5675
半边	-5676
即引	-5677
即请	-5678
却去	-5679
压在	-5680
去哩	-5681
去那	-5682
又值	-5683
又打	-5684
又说	-5685
又走	-5686
叙话	-5687
只手	-5688
叫你	-5689
叫喊	-5690
叫我	-5691
台下	-5692
台府	-5693
右边	-5694
各持	-5695
合意	-5696
名山	-5697
后患	-5698
吞之	-5699
吾乃	-5700
呆呆	-5701
告诉	-5702
呼小	-5703
呼的	-5704
善能	-5705
喷喷	-5706
噙着	-5707
嚷到	-5708
四回	-5709
四将	-5710
四木	-5711
回复	-5712
回朝	-5713
围在	-5714
圣水	-5715
坐禅	-5716
城上	-5717
壮丽	-5718
声如	-5719
多年	-5720
夜里	-5721
大山	-5722
大帝	-5723
大户	-5724
大雄	-5725
天开	-5726
天昏	-5727
天条	-5728
天风	-5729
夫妇	-5730
头发	-5731
头顶	-5732
妖仙	-5733
妖兵	-5734
妖娆	-5735
妖氛	-5736
妖狐	-5737
姹女	-5738
字儿	-5739
孜孜	-5740
孩童	-5741
安置	-5742
宫女	-5743
害你	-5744
寂灭	-5745
寒暑	-5746
对头	-5747
对面	-5748
尊府	-5749
小人	-5750
小孙	-5751
小张	-5752
就将	-5753
就象	-5754
屋里	-5755
屏风	-5756
巅峰	-5757
帅领	-5758
带挈	-5759
带领	-5760
常年	-5761
常来	-5762
干了	-5763
幸遇	-5764
幼年	-5765
庄村	-5766
应承	-5767
弄出	-5768
强如	-5769
当今	-5770
彩凤	-5771
彩楼	-5772
彼岸	-5773
得来	-5774
得过	-5775
德行	-5776
心慌	-5777
忍耐	-5778
快活	-5779
念起	-5780
急了	-5781
急架	-5782
急转	-5783
怪你	-5784
恩爱	-5785
恶人	-5786
悠悠	-5787
惊张	-5788
想你	-5789
惹他	-5790
愿心	-5791
成仙	-5792
我问	-5793
或是	-5794
战战	-5795
房门	-5796
手软	-5797
打伤	-5798
打滚	-5799
打话	-5800
打门	-5801
扫净	-5802
扫地	-5803
扭捏	-5804
抢夺	-5805
报了	-5806
抬上	-5807
拨转	-5808
持刀	-5809
挝住	-5810
捉得	-5811
排列	-5812
接引	-5813
控背	-5814
揭起	-5815
搀住	-5816
摘了	-5817
撇了	-5818
撒开	-5819
擒来	-5820
攀鞍	-5821
收他	-5822
收伏	-5823
放你	-5824
放松	-5825
放的	-5826
放荡	-5827
故意	-5828
敖广	-5829
斋戒	-5830
斜倚	-5831
方敢	-5832
方能	-5833
方醒	-5834
无干	-5835
无心	-5836
日子	-5837
早斋	-5838
早起	-5839
星月	-5840
映日	-5841
昨晚	-5842
显能	-5843
月明	-5844
有座	-5845
有见	-5846
有话	-5847
朗朗	-5848
木狼	-5849
木耳	-5850
木蛟	-5851
未定	-5852
杀他	-5853
来接	-5854
来迟	-5855
柴扉	-5856
树下	-5857
根下	-5858
桌上	-5859
桌子	-5860
桩事	-5861
梦中	-5862
梳妆	-5863
楼阁	-5864
檐下	-5865
欲要	-5866
正与	-5867
正坐	-5868
此一	-5869
此计	-5870
残生	-5871
比前	-5872
毛团	-5873
水底	-5874
水性	-5875
水族	-5876
求些	-5877
河神	-5878
洗浴	-5879
流星	-5880
海口	-5881
海晏	-5882
消停	-5883
深浅	-5884
混元	-5885
清净	-5886
滔滔	-5887
满斟	-5888
满身	-5889
瀛洲	-5890
照依	-5891
片时	-5892
牛精	-5893
牛魔	-5894
狻猊	-5895
猛烈	-5896
猿啼	-5897
王佛	-5898
玛瑙	-5899
现身	-5900
玻璃	-5901
瑶池	-5902
甚紧	-5903
生人	-5904
生意	-5905
生灵	-5906
留住	-5907
疑惑	-5908
白昼	-5909
白雪	-5910
盖上	-5911
盘丝	-5912
盘桓	-5913
相应	-5914
盼望	-5915
看来	-5916
真武	-5917
真火	-5918
眷族	-5919
眼儿	-5920
着然	-5921
睡哩	-5922
睬他	-5923
砍头	-5924
祗园	-5925
神师	-5926
神祗	-5927
禅心	-5928
稀奇	-5929
稀烂	-5930
站下	-5931
站定	-5932
童女	-5933
素宴	-5934
素斋	-5935
素的	-5936
絮絮	-5937
纳锦	-5938
经回	-5939
结为	-5940
结束	-5941
绣墩	-5942
缤纷	-5943
翠屏	-5944
翠竹	-5945
翻腾	-5946
而何	-5947
而无	-5948
肩上	-5949
胁下	-5950
胆大	-5951
胜负	-5952
能值	-5953
脚的	-5954
脚软	-5955
脱得	-5956
脱难	-5957
腰束	-5958
腾空	-5959
致使	-5960
舞的	-5961
般般	-5962
苍松	-5963
若得	-5964
草科	-5965
荣华	-5966
药引	-5967
莫打	-5968
葡萄	-5969
虎口	-5970
虽不	-5971
蛾眉	-5972
蟭鑙	-5973
血雨	-5974
衣物	-5975
被这	-5976
要蒸	-5977
要行	-5978
认亲	-5979
试试	-5980
话不	-5981
该打	-5982
谁知	-5983
谢之	-5984
贤郎	-5985
贪欢	-5986
贵地	-5987
走进	-5988
赴宴	-5989
起个	-5990
起的	-5991
跟来	-5992
路了	-5993
蹭蹬	-5994
躲懒	-5995
辞别	-5996
过处	-5997
过海	-5998
迎阳	-5999
还从	-6000
进步	-6001
远送	-6002
送上	-6003
遂将	-6004
道心	-6005
遥观	-6006
遵命	-6007
都有	-6008
酒席	-6009
采药	-6010
里一	-6011
重谢	-6012
金圣	-6013
金旨	-6014
金牌	-6015
针线	-6016
钉在	-6017
门楼	-6018
闪灼	-6019
闪电	-6020
问一	-6021
闷气	-6022
阵势	-6023
降怪	-6024
院中	-6025
除根	-6026
难忍	-6027
雌雄	-6028
雕鞍	-6029
霞彩	-6030
靠着	-6031
面生	-6032
顾命	-6033
领诺	-6034
飞沙	-6035
饭来	-6036
饶了	-6037
饿了	-6038
饿虎	-6039
马面	-6040
骁勇	-6041
鬼怪	-6042
麻绳	-6043
黄眉	-6044
黑熊	-6045
齐齐	-6046
▁七八	-6047
▁也曾	-6048
▁仔细	-6049
▁兄弟	-6050
▁只管	-6051
▁四十	-6052
▁土地	-6053
▁头上	-6054
▁奈何	-6055
▁妖怪	-6056
▁妖魔	-6057
▁得那	-6058
▁我的	-6059
▁次日	-6060
▁灵山	-6061
▁玉皇	-6062
▁行李	-6063
▁言语	-6064
▁那妖	-6065
▁里面	-6066
三十个	-6067
三十六	-6068
三十卷	-6069
三太子	-6070
上雷音	-6071
下拜道	-6072
不敢久	-6073
不能言	-6074
不要忙	-6075
与他个	-6076
与他吃	-6077
与国王	-6078
且等我	-6079
举铁棒	-6080
乃是个	-6081
九齿钯	-6082
也不见	-6083
也只是	-6084
也是我	-6085
了一口	-6086
了一场	-6087
了一夜	-6088
了一跌	-6089
了白马	-6090
事不谐	-6091
二徒弟	-6092
什么人	-6093
从何来	-6094
他二人	-6095
他是个	-6096
会同馆	-6097
你与我	-6098
你可曾	-6099
你师兄	-6100
你把那	-6101
你是那	-6102
你看这	-6103
假公主	-6104
入门里	-6105
到如今	-6106
刽子手	-6107
前前后	-6108
勒马道	-6109
南天门	-6110
即变作	-6111
却不又	-6112
原来这	-6113
去看看	-6114
又被他	-6115
变化多	-6116
吓得那	-6117
在外面	-6118
在水里	-6119
在肚里	-6120
天井里	-6121
女怪道	-6122
如意棒	-6123
妖精的	-6124
姓甚名	-6125
定身法	-6126
将八戒	-6127
将去了	-6128
就变做	-6129
幌金绳	-6130
往往来	-6131
必定是	-6132
忍着疼	-6133
念一声	-6134
忽见他	-6135
慢慢的	-6136
我们这	-6137
我把你	-6138
我把这	-6139
我父王	-6140
我自有	-6141
我认得	-6142
我贫僧	-6143
我进去	-6144
把两个	-6145
把毫毛	-6146
把身子	-6147
抖一抖	-6148
拦住道	-6149
指定道	-6150
摸了一	-6151
教我们	-6152
是个真	-6153
是你的	-6154
是弟子	-6155
是甚人	-6156
景诗曰	-6157
有几分	-6158
有十数	-6159
朝门外	-6160
欢欢喜	-6161
此间乃	-6162
死回生	-6163
毗卢帽	-6164
海龙王	-6165
满城中	-6166
玄英洞	-6167
玉华州	-6168
白日里	-6169
的妖怪	-6170
的那个	-6171
看了道	-6172
看师父	-6173
着嘴道	-6174
着沙僧	-6175
知大圣	-6176
竹节山	-6177
终不然	-6178
罢多时	-6179
老奶奶	-6180
老道士	-6181
者行孙	-6182
草还丹	-6183
行者笑	-6184
西梁国	-6185
请老爷	-6186
跟我来	-6187
过去了	-6188
过去罢	-6189
迎接道	-6190
近前道	-6191
还礼道	-6192
这一夜	-6193
这叫做	-6194
这猴儿	-6195
送我们	-6196
那先生	-6197
那婆婆	-6198
那王子	-6199
金丹砂	-6200
金击子	-6201
金銮殿	-6202
铁扇仙	-6203
锦直裰	-6204
陈玄奘	-6205
青龙山	-6206
食肠大	-6207
高呼道	-6208
高老道	-6209
黑松林	-6210
▁你怎么	-6211
▁你看那	-6212
▁第九十	-6213
▁第二十	-6214
▁第八十	-6215
▁那妖魔	-6216
一个叫做	-6217
一个和尚	-6218
一把扯住	-6219
三藏下马	-6220
三藏听说	-6221
三藏见他	-6222
三藏问道	-6223
不容分说	-6224
乌鸡国王	-6225
你在这里	-6226
你老人家	-6227
你这泼猴	-6228
你这猴子	-6229
倒在尘埃	-6230
八大金刚	-6231
凭他怎么	-6232
半云半雾	-6233
卷帘大将	-6234
厉声高叫	-6235
原来不知	-6236
只见一个	-6237
呼的一声	-6238
呼风唤雨	-6239
唐朝圣僧	-6240
善财童子	-6241
嘤的一声	-6242
圣婴大王	-6243
坐在中间	-6244
大圣何来	-6245
大圣闻言	-6246
太白金星	-6247
当的一声	-6248
往往来来	-6249
怎么今日	-6250
思凡下界	-6251
我出家人	-6252
把我师父	-6253
挑着行李	-6254
携手相搀	-6255
救他一救	-6256
救我一救	-6257
有人言语	-6258
灵吉菩萨	-6259
玉面公主	-6260
疼痛难禁	-6261
白玉阶前	-6262
的弼马温	-6263
皇宫内院	-6264
般若波罗	-6265
行彀多时	-6266
行者三人	-6267
行者依言	-6268
行者叫道	-6269
费了多少	-6270
跌倒在地	-6271
跌脚捶胸	-6272
进退两难	-6273
那老者道	-6274
风调雨顺	-6275
▁八戒笑道	-6276
▁却说那怪	-6277
三个小王子	-6278
三藏大惊道	-6279
八戒忍不住	-6280
吃他一块肉	-6281
大闹天宫时	-6282
是什么去处	-6283
止不住腮边	-6284
没头没脸的	-6285
跪在面前道	-6286
长嘴大耳朵	-6287
叫做什么名字	-6288
毕竟不知此去	-6289
,”	-6290
▁伏	-6291
▁传	-6292
▁俱	-6293
▁凤	-6294
▁南	-6295
▁哭	-6296
▁噫	-6297
▁场	-6298
▁女	-6299
▁娘	-6300
▁字	-6301
▁宝	-6302
▁岭	-6303
▁崖	-6304
▁差	-6305
▁干	-6306
▁并	-6307
▁府	-6308
▁必	-6309
▁捉	-6310
▁撞	-6311
▁整	-6312
▁文	-6313
▁旨	-6314
▁步	-6315
▁消	-6316
▁深	-6317
▁滚	-6318
▁灯	-6319
▁灵	-6320
▁烧	-6321
▁禅	-6322
▁童	-6323
▁绣	-6324
▁落	-6325
▁西	-6326
▁解	-6327
▁论	-6328
▁该	-6329
▁谁	-6330
▁轻	-6331
▁远	-6332
▁连	-6333
▁锁	-6334
▁闪	-6335
▁闻	-6336
▁阴	-6337
▁非	-6338
▁领	-6339
▁鱼	-6340
一万	-6341
一些	-6342
一句	-6343
一堆	-6344
一程	-6345
一筑	-6346
一粒	-6347
一闻	-6348
七绝	-6349
万七	-6350
万僧	-6351
丈母	-6352
三星	-6353
三根	-6354
三老	-6355
三难	-6356
上方	-6357
下边	-6358
不仁	-6359
不入	-6360
不孝	-6361
不收	-6362
不灭	-6363
不闻	-6364
丑恶	-6365
丑的	-6366
专一	-6367
且是	-6368
且行	-6369
世之	-6370
世里	-6371
东洋	-6372
两下	-6373
中了	-6374
丰姿	-6375
为父	-6376
举刀	-6377
举棒	-6378
之何	-6379
之名	-6380
之子	-6381
之怪	-6382
之方	-6383
之礼	-6384
之福	-6385
之经	-6386
之苦	-6387
九转	-6388
也来	-6389
也该	-6390
了又	-6391
争斗	-6392
争看	-6393
事情	-6394
二三	-6395
二个	-6396
二将	-6397
亘古	-6398
些的	-6399
亡人	-6400
交付	-6401
交椅	-6402
交锋	-6403
亲家	-6404
人口	-6405
人都	-6406
今幸	-6407
今晚	-6408
今蒙	-6409
他了	-6410
他家	-6411
他还	-6412
仙府	-6413
仙庵	-6414
以礼	-6415
仰面	-6416
件件	-6417
任他	-6418
休矣	-6419
休走	-6420
众圣	-6421
众皆	-6422
会亲	-6423
伤情	-6424
伤风	-6425
伸过	-6426
似有	-6427
似箭	-6428
但说	-6429
位是	-6430
何必	-6431
何物	-6432
佛前	-6433
佛宝	-6434
佛家	-6435
佛旨	-6436
佛殿	-6437
佛法	-6438
佛象	-6439
作甚	-6440
你孙	-6441
你将	-6442
你请	-6443
佯输	-6444
使唤	-6445
使铁	-6446
供奉	-6447
便不	-6448
便去	-6449
信了	-6450
修炼	-6451
倒树	-6452
倘若	-6453
假意	-6454
停云	-6455
停住	-6456
儿哩	-6457
元始	-6458
元宵	-6459
入宫	-6460
入门	-6461
共有	-6462
共计	-6463
典膳	-6464
再作	-6465
再拜	-6466
军士	-6467
决然	-6468
几下	-6469
几位	-6470
几卷	-6471
几声	-6472
凹里	-6473
刀枪	-6474
分儿	-6475
剃头	-6476
削壁	-6477
剖腹	-6478
办斋	-6479
勉强	-6480
医活	-6481
十六	-6482
千百	-6483
千花	-6484
半路	-6485
卫国	-6486
即同	-6487
即点	-6488
厨房	-6489
去向	-6490
去讫	-6491
参果	-6492
又会	-6493
又大	-6494
又把	-6495
又蒙	-6496
发白	-6497
叔叔	-6498
取些	-6499
变个	-6500
只望	-6501
只该	-6502
只闻	-6503
叮咛	-6504
可夸	-6505
可恨	-6506
可惜	-6507
可用	-6508
可能	-6509
可贺	-6510
吃你	-6511
吃吃	-6512
各要	-6513
同入	-6514
同行	-6515
名头	-6516
后生	-6517
吐雾	-6518
向善	-6519
向年	-6520
听信	-6521
告借	-6522
告诵	-6523
呼为	-6524
和气	-6525
咬响	-6526
咽喉	-6527
哀告	-6528
响处	-6529
哝哝	-6530
唏唏	-6531
唤出	-6532
喇嘛	-6533
喜悦	-6534
喝退	-6535
嘘嘘	-6536
噙泪	-6537
四只	-6538
回奏	-6539
回海	-6540
因师	-6541
团团	-6542
园中	-6543
圣贤	-6544
在宫	-6545
坐得	-6546
坐次	-6547
坠落	-6548
垂慈	-6549
堂前	-6550
复来	-6551
多承	-6552
夜雨	-6553
大国	-6554
大德	-6555
大蟒	-6556
大觉	-6557
大雨	-6558
天府	-6559
天恩	-6560
天灾	-6561
太医	-6562
夸奖	-6563
奉献	-6564
奏上	-6565
套上	-6566
如火	-6567
如若	-6568
如银	-6569
妇女	-6570
妙岩	-6571
姓猪	-6572
委实	-6573
子精	-6574
安殿	-6575
完备	-6576
宝印	-6577
宣召	-6578
宣至	-6579
家当	-6580
宿水	-6581
寂寂	-6582
寂寞	-6583
寒噤	-6584
对敌	-6585
寺中	-6586
寻常	-6587
将前	-6588
将马	-6589
尊师	-6590
尊意	-6591
尊颜	-6592
小二	-6593
小子	-6594
小校	-6595
尖峰	-6596
就念	-6597
就欲	-6598
就活	-6599
尽绝	-6600
山压	-6601
山景	-6602
山河	-6603
山里	-6604
岂敢	-6605
崔巍	-6606
崖边	-6607
巢穴	-6608
巧石	-6609
差池	-6610
巳时	-6611
带你	-6612
带着	-6613
帮手	-6614
平地	-6615
平处	-6616
平日	-6617
庙里	-6618
座上	-6619
开辟	-6620
弄了	-6621
弄法	-6622
引见	-6623
归路	-6624
当坊	-6625
当夜	-6626
当日	-6627
当晚	-6628
往东	-6629
往后	-6630
往回	-6631
径自	-6632
径过	-6633
得意	-6634
得活	-6635
得脱	-6636
微臣	-6637
心性	-6638
心爱	-6639
心生	-6640
志诚	-6641
忧虑	-6642
快些	-6643
快将	-6644
念道	-6645
怎了	-6646
怎样	-6647
怒气	-6648
怕了	-6649
怕我	-6650
恭敬	-6651
恼怒	-6652
悚然	-6653
情知	-6654
惟有	-6655
惨雾	-6656
惶恐	-6657
慧眼	-6658
懒惰	-6659
我主	-6660
我会	-6661
我先	-6662
我往	-6663
我曾	-6664
我本	-6665
戒行	-6666
战到	-6667
战败	-6668
手足	-6669
才来	-6670
打搅	-6671
打盹	-6672
托生	-6673
扣背	-6674
把人	-6675
把脸	-6676
披了	-6677
抬着	-6678
拈香	-6679
拐杖	-6680
招你	-6681
招赘	-6682
拜别	-6683
拜告	-6684
拦阻	-6685
拿将	-6686
拿过	-6687
挣挫	-6688
捆在	-6689
捉获	-6690
捕获	-6691
接待	-6692
推辞	-6693
搭救	-6694
摄法	-6695
摇旗	-6696
撑开	-6697
撒了	-6698
撞祸	-6699
撮土	-6700
擒怪	-6701
收之	-6702
收起	-6703
改日	-6704
放刁	-6705
放怀	-6706
救命	-6707
救活	-6708
敕建	-6709
整一	-6710
斋罢	-6711
斗了	-6712
斩官	-6713
断根	-6714
无底	-6715
无珠	-6716
无门	-6717
旧时	-6718
早说	-6719
时有	-6720
昔日	-6721
显化	-6722
显魂	-6723
晃亮	-6724
晚间	-6725
普贤	-6726
智渊	-6727
月里	-6728
有两	-6729
有余	-6730
有便	-6731
有失	-6732
有字	-6733
有无	-6734
有请	-6735
未及	-6736
本部	-6737
林内	-6738
林里	-6739
果正	-6740
查点	-6741
树来	-6742
样子	-6743
核子	-6744
桃李	-6745
案上	-6746
桥下	-6747
桩上	-6748
棒架	-6749
樵哥	-6750
欺我	-6751
歇在	-6752
正值	-6753
正合	-6754
正宫	-6755
正法	-6756
毫光	-6757
气得	-6758
水德	-6759
求得	-6760
沙滩	-6761
没钱	-6762
河清	-6763
沾身	-6764
泄漏	-6765
法华	-6766
波月	-6767
波涛	-6768
泪来	-6769
洪福	-6770
活命	-6771
浑如	-6772
浪荡	-6773
海的	-6774
涧中	-6775
涧水	-6776
清幽	-6777
源流	-6778
溜头	-6779
溜撒	-6780
滋味	-6781
满的	-6782
潮音	-6783
瀑布	-6784
火部	-6785
灰烬	-6786
灵芝	-6787
点着	-6788
烦为	-6789
煮饭	-6790
爹爹	-6791
牌楼	-6792
牡丹	-6793
犯了	-6794
犹可	-6795
狮奴	-6796
猛然	-6797
献上	-6798
王位	-6799
珍馐	-6800
瓶中	-6801
生来	-6802
生灾	-6803
用了	-6804
用的	-6805
男儿	-6806
留名	-6807
留我	-6808
白鹤	-6809
白鼋	-6810
皂白	-6811
的大	-6812
的神	-6813
的经	-6814
的饭	-6815
皇榜	-6816
皮肉	-6817
盛情	-6818
直到	-6819
直挺	-6820
看是	-6821
着人	-6822
着话	-6823
短棍	-6824
石屋	-6825
石板	-6826
石碣	-6827
碗子	-6828
磷磷	-6829
祖师	-6830
祖翁	-6831
神气	-6832
神鬼	-6833
祸来	-6834
禅性	-6835
福星	-6836
禽星	-6837
积年	-6838
移步	-6839
窝中	-6840
竭力	-6841
笙歌	-6842
等他	-6843
筑破	-6844
算来	-6845
管他	-6846
米山	-6847
粗鲁	-6848
紧箍	-6849
红的	-6850
缓步	-6851
罕见	-6852
老弟	-6853
耳大	-6854
背心	-6855
背着	-6856
脊背	-6857
脓包	-6858
腰系	-6859
自去	-6860
色色	-6861
芙蓉	-6862
芝兰	-6863
花木	-6864
芳菲	-6865
若在	-6866
若无	-6867
苦了	-6868
苦啊	-6869
苦恼	-6870
茅屋	-6871
茶罢	-6872
草木	-6873
莫大	-6874
蔬菜	-6875
藏头	-6876
藤萝	-6877
蘑菇	-6878
螃蟹	-6879
行不	-6880
行处	-6881
行过	-6882
衙门	-6883
表记	-6884
袖子	-6885
被妖	-6886
西北	-6887
西路	-6888
要做	-6889
见此	-6890
视之	-6891
言曰	-6892
认做	-6893
认真	-6894
讶道	-6895
许远	-6896
设宴	-6897
识破	-6898
询问	-6899
说个	-6900
请行	-6901
诸亲	-6902
调开	-6903
豪杰	-6904
负水	-6905
败下	-6906
贬书	-6907
费了	-6908
费心	-6909
贺喜	-6910
贼猴	-6911
赛过	-6912
走的	-6913
趋步	-6914
跑出	-6915
跑至	-6916
跟他	-6917
路儿	-6918
跷蹊	-6919
轮流	-6920
轿子	-6921
辉煌	-6922
辟水	-6923
还得	-6924
这件	-6925
进得	-6926
远山	-6927
违了	-6928
迟了	-6929
送命	-6930
通明	-6931
遇水	-6932
遭此	-6933
那样	-6934
那洞	-6935
部中	-6936
都打	-6937
酥合	-6938
醒了	-6939
醒来	-6940
里的	-6941
里钻	-6942
金甲	-6943
金角	-6944
金龙	-6945
钩子	-6946
锁在	-6947
锅灶	-6948
问谁	-6949
闻奏	-6950
阻住	-6951
降临	-6952
陪礼	-6953
难为	-6954
难处	-6955
雄威	-6956
霄汉	-6957
霭霭	-6958
顶山	-6959
颠倒	-6960
风流	-6961
风生	-6962
飞去	-6963
饥餐	-6964
馆使	-6965
馕糠	-6966
骑马	-6967
骗我	-6968
魍魉	-6969
鹰犬	-6970
黄狮	-6971
鼓掌	-6972
齐声	-6973
龙车	-6974
!”“	-6975
▁一变	-6976
▁三人	-6977
▁不可	-6978
▁不能	-6979
▁东土	-6980
▁两边	-6981
▁乃是	-6982
▁五行	-6983
▁你要	-6984
▁却才	-6985
▁叫声	-6986
▁吃了	-6987
▁听见	-6988
▁哥啊	-6989
▁大仙	-6990
▁大小	-6991
▁天王	-6992
▁就是	-6993
▁心猿	-6994
▁把那	-6995
▁方才	-6996
▁是他	-6997
▁有些	-6998
▁王道	-6999
▁看他	-7000
▁着实	-7001
▁老猪	-7002
▁若是	-7003
▁被他	-7004
▁这里	-7005
。”“	-7006
一个儿	-7007
一声道	-7008
一条绳	-7009
一秤金	-7010
三藏又	-7011
上前来	-7012
上界去	-7013
下龙床	-7014
不得他	-7015
不方便	-7016
不转睛	-7017
不过意	-7018
与三藏	-7019
与他赌	-7020
与你听	-7021
与弟子	-7022
为唐僧	-7023
九头虫	-7024
也彀了	-7025
也是个	-7026
也有个	-7027
了一抖	-7028
了一日	-7029
了许多	-7030
二十个	-7031
二尊者	-7032
五十卷	-7033
似这等	-7034
但只见	-7035
佛如来	-7036
佛衣会	-7037
你只管	-7038
你快去	-7039
你这伙	-7040
你这般	-7041
你这里	-7042
假行者	-7043
傲来国	-7044
入洞里	-7045
凌空子	-7046
出家的	-7047
出门外	-7048
切不可	-7049
剥了皮	-7050
剥皮亭	-7051
十万八	-7052
千里路	-7053
却也不	-7054
又惊又	-7055
发慈悲	-7056
取经者	-7057
变化了	-7058
只因他	-7059
可怜啊	-7060
吃些儿	-7061
吃饱了	-7062
同行者	-7063
名唤做	-7064
呆子道	-7065
呼小叫	-7066
唱个喏	-7067
唿喇喇	-7068
喜孜孜	-7069
四十八	-7070
四天师	-7071
回来也	-7072
在外边	-7073
在那厢	-7074
在那山	-7075
大力王	-7076
大慈大	-7077
大慈悲	-7078
大路上	-7079
大路旁	-7080
大雷音	-7081
太阳星	-7082
奎木狼	-7083
女王道	-7084
好猴王	-7085
好耍子	-7086
妖精也	-7087
孙老爷	-7088
定风丹	-7089
对三藏	-7090
寿星道	-7091
将左手	-7092
小妖儿	-7093
小小的	-7094
就打得	-7095
山门外	-7096
巴山虎	-7097
师父也	-7098
应声道	-7099
待我们	-7100
得了手	-7101
忙忙的	-7102
怎么好	-7103
怎的说	-7104
怕什么	-7105
思量道	-7106
情知是	-7107
慈云寺	-7108
我和尚	-7109
我来了	-7110
我的儿	-7111
我等乃	-7112
打杀他	-7113
打诳语	-7114
把三藏	-7115
把长老	-7116
掣钉钯	-7117
斋僧的	-7118
方丈里	-7119
无挂碍	-7120
无根水	-7121
早望见	-7122
星官道	-7123
是东土	-7124
晦气色	-7125
普陀岩	-7126
暗暗的	-7127
更不见	-7128
有五六	-7129
有甚事	-7130
望妖精	-7131
来报道	-7132
架住道	-7133
正中间	-7134
毗蓝道	-7135
泪如泉	-7136
洞门前	-7137
独自个	-7138
登宝殿	-7139
的就是	-7140
监斩官	-7141
看见道	-7142
着行者	-7143
硬着胆	-7144
碧波潭	-7145
离此有	-7146
竖蜻蜓	-7147
端的是	-7148
结束了	-7149
老公公	-7150
胖和尚	-7151
草科里	-7152
莫胡说	-7153
莲花洞	-7154
菩萨处	-7155
虚幌一	-7156
蜜蜂儿	-7157
行者就	-7158
行者的	-7159
见妖精	-7160
见菩萨	-7161
讲什么	-7162
许多人	-7163
诚然是	-7164
误了我	-7165
说的是	-7166
说着话	-7167
谢了恩	-7168
豹头山	-7169
赌输赢	-7170
赤条条	-7171
走将来	-7172
走路的	-7173
起身来	-7174
跑进去	-7175
跟他去	-7176
跟我去	-7177
踏一双	-7178
近侍的	-7179
这一会	-7180
这一番	-7181
这几年	-7182
这怪物	-7183
这猴头	-7184
这都是	-7185
进城去	-7186
远远的	-7187
造化了	-7188
道士云	-7189
那个说	-7190
那君王	-7191
那员外	-7192
那土地	-7193
那女怪	-7194
那昏君	-7195
那老僧	-7196
银安殿	-7197
错怪了	-7198
长老啊	-7199
门上有	-7200
饶了他	-7201
驾云头	-7202
驾祥云	-7203
齐整整	-7204
▁你两个	-7205
▁唬得那	-7206
▁好妖精	-7207
▁老者道	-7208
▁说不了	-7209
▁那和尚	-7210
▁那女子	-7211
▁那菩萨	-7212
▁那道士	-7213
▁那魔王	-7214
▁金箍棒	-7215
▁长老道	-7216
一般模样	-7217
一部一百	-7218
一齐上前	-7219
万千之喜	-7220
三个妖魔	-7221
三千揭谛	-7222
三藏师徒	-7223
上前扯住	-7224
不消说了	-7225
不知高低	-7226
不能前进	-7227
与我师父	-7228
两个徒弟	-7229
九齿钉钯	-7230
五千四百	-7231
什么东西	-7232
他的模样	-7233
你怎么不	-7234
你是那里	-7235
倒在地下	-7236
公然不惧	-7237
六街三市	-7238
前前后后	-7239
千里之遥	-7240
却不是好	-7241
变作一只	-7242
口不能言	-7243
古怪刁钻	-7244
吆吆喝喝	-7245
呵呵大笑	-7246
呵呵笑道	-7247
四大部洲	-7248
在他肚里	-7249
大王爷爷	-7250
姓甚名谁	-7251
寂然不见	-7252
将身一抖	-7253
御弟三藏	-7254
念动咒语	-7255
怎么叫做	-7256
我不去了	-7257
抖了一抖	-7258
拿他不住	-7259
播土扬尘	-7260
攀鞍上马	-7261
放声大哭	-7262
救得师父	-7263
既然如此	-7264
有人叫道	-7265
有何难哉	-7266
有眼无珠	-7267
木叉行者	-7268
欢欢喜喜	-7269
火德星君	-7270
灵霄宝殿	-7271
现出原身	-7272
秉教沙门	-7273
穿了衣服	-7274
絮絮叨叨	-7275
绣花针儿	-7276
脱了衣服	-7277
行者听说	-7278
认得我么	-7279
走出门来	-7280
起在空中	-7281
起死回生	-7282
跌下马来	-7283
这个和尚	-7284
这些和尚	-7285
进去看看	-7286
遮架不住	-7287
那里去了	-7288
酥合香油	-7289
锦騪袈裟	-7290
降妖宝杖	-7291
齐齐整整	-7292
龙子龙孙	-7293
八戒慌了道	-7294
十世修行的	-7295
十分欢喜道	-7296
只听得呼呼	-7297
号山枯松涧	-7298
咄的一声道	-7299
有三个徒弟	-7300
满眼垂泪道	-7301
▁却说那妖精	-7302
东土大唐钦差	-7303
!’	-7304
?’	-7305
’。	-7306
▁亦	-7307
▁供	-7308
▁依	-7309
▁兢	-7310
▁共	-7311
▁凭	-7312
▁则	-7313
▁刮	-7314
▁势	-7315
▁包	-7316
▁厮	-7317
▁吾	-7318
▁咐	-7319
▁哥	-7320
▁嚷	-7321
▁城	-7322
▁墙	-7323
▁复	-7324
▁婆	-7325
▁岁	-7326
▁岸	-7327
▁帘	-7328
▁幸	-7329
▁庄	-7330
▁度	-7331
▁忘	-7332
▁忙	-7333
▁怕	-7334
▁愿	-7335
▁托	-7336
▁投	-7337
▁挑	-7338
▁排	-7339
▁枪	-7340
▁架	-7341
▁棍	-7342
▁歹	-7343
▁段	-7344
▁汤	-7345
▁油	-7346
▁爱	-7347
▁牢	-7348
▁猴	-7349
▁猿	-7350
▁畜	-7351
▁番	-7352
▁皮	-7353
▁磕	-7354
▁穿	-7355
▁立	-7356
▁端	-7357
▁紫	-7358
▁胜	-7359
▁臾	-7360
▁舍	-7361
▁虽	-7362
▁让	-7363
▁许	-7364
▁证	-7365
▁败	-7366
▁贼	-7367
▁逢	-7368
▁钻	-7369
▁铁	-7370
▁锅	-7371
▁闲	-7372
▁霜	-7373
▁题	-7374
▁食	-7375
▁骂	-7376
▁骨	-7377
一体	-7378
一半	-7379
一变	-7380
一大	-7381
一尺	-7382
一山	-7383
一扇	-7384
一抹	-7385
一朵	-7386
一梦	-7387
一碗	-7388
一觉	-7389
一言	-7390
一遭	-7391
一面	-7392
一颗	-7393
一餐	-7394
万事	-7395
万民	-7396
万籁	-7397
三刻	-7398
三升	-7399
三春	-7400
三朝	-7401
三样	-7402
三点	-7403
三者	-7404
上书	-7405
上复	-7406
下楼	-7407
不停	-7408
不时	-7409
不睡	-7410
不舍	-7411
不难	-7412
不顾	-7413
与二	-7414
且待	-7415
且看	-7416
东岳	-7417
丢个	-7418
两般	-7419
两道	-7420
个手	-7421
丹桂	-7422
为姓	-7423
主张	-7424
之仙	-7425
之力	-7426
之甚	-7427
之道	-7428
之门	-7429
乌斯	-7430
九环	-7431
九百	-7432
也会	-7433
也打	-7434
也道	-7435
书云	-7436
买了	-7437
买些	-7438
买办	-7439
乱了	-7440
乱走	-7441
了头	-7442
事体	-7443
云步	-7444
五口	-7445
五彩	-7446
井上	-7447
井中	-7448
些人	-7449
些时	-7450
交欢	-7451
亲事	-7452
人种	-7453
仁义	-7454
今又	-7455
今喜	-7456
今来	-7457
从今	-7458
他即	-7459
他只	-7460
他娘	-7461
他已	-7462
他敢	-7463
他知	-7464
他能	-7465
他身	-7466
仙桃	-7467
仙道	-7468
令爱	-7469
休怪	-7470
会他	-7471
会子	-7472
传奏	-7473
传扬	-7474
传授	-7475
伤心	-7476
伸出	-7477
伸开	-7478
但凭	-7479
但是	-7480
住下	-7481
住马	-7482
体健	-7483
何尝	-7484
何所	-7485
何时	-7486
余合	-7487
作法	-7488
你偷	-7489
你到	-7490
你吃	-7491
你和	-7492
你拿	-7493
你敢	-7494
使棒	-7495
使法	-7496
依依	-7497
俊的	-7498
俗人	-7499
修成	-7500
俱到	-7501
倒有	-7502
借得	-7503
借我	-7504
做声	-7505
停立	-7506
僧帽	-7507
儿上	-7508
儿就	-7509
儿道	-7510
先行	-7511
先走	-7512
光亮	-7513
免打	-7514
兔儿	-7515
全没	-7516
全然	-7517
八宝	-7518
公卿	-7519
公然	-7520
六件	-7521
兵刃	-7522
其心	-7523
其数	-7524
其言	-7525
冉冉	-7526
再休	-7527
冤仇	-7528
冤家	-7529
冤魂	-7530
净水	-7531
凄凉	-7532
准备	-7533
凉水	-7534
凉篷	-7535
几万	-7536
几处	-7537
几株	-7538
凤辇	-7539
凶狠	-7540
出恭	-7541
出朝	-7542
出榜	-7543
出神	-7544
刀兵	-7545
分晓	-7546
切切	-7547
利爪	-7548
到今	-7549
到时	-7550
刷洗	-7551
剜心	-7552
剪除	-7553
劝化	-7554
功劳	-7555
功折	-7556
加升	-7557
加鞭	-7558
勿罪	-7559
化道	-7560
北下	-7561
北方	-7562
匹马	-7563
十日	-7564
十来	-7565
千丈	-7566
千余	-7567
千斤	-7568
午时	-7569
半开	-7570
单身	-7571
博士	-7572
即于	-7573
即出	-7574
即去	-7575
即至	-7576
却倒	-7577
却自	-7578
原说	-7579
参佛	-7580
又在	-7581
又进	-7582
叉手	-7583
双膝	-7584
取讨	-7585
变脸	-7586
口上	-7587
口内	-7588
口的	-7589
古洞	-7590
叩谢	-7591
只会	-7592
叫哩	-7593
叫那	-7594
叫骂	-7595
可叹	-7596
可好	-7597
可得	-7598
可爱	-7599
可知	-7600
可韩	-7601
号曰	-7602
吃个	-7603
各散	-7604
各逞	-7605
各项	-7606
同享	-7607
同到	-7608
后又	-7609
后宰	-7610
后日	-7611
向日	-7612
吞了	-7613
告了	-7614
告他	-7615
命罢	-7616
和他	-7617
哄你	-7618
哭丧	-7619
哭得	-7620
唱喏	-7621
善念	-7622
善缘	-7623
喉咙	-7624
喷风	-7625
嗟叹	-7626
嘴来	-7627
四句	-7628
四肢	-7629
四野	-7630
四难	-7631
四马	-7632
回上	-7633
回东	-7634
回归	-7635
回报	-7636
回言	-7637
回首	-7638
困倦	-7639
国家	-7640
在东	-7641
在天	-7642
在身	-7643
地灵	-7644
地界	-7645
地脉	-7646
地辟	-7647
场中	-7648
坐的	-7649
坐落	-7650
城边	-7651
堵了	-7652
塔门	-7653
境界	-7654
声唤	-7655
复得	-7656
多了	-7657
多凶	-7658
多多	-7659
多大	-7660
多有	-7661
多蒙	-7662
多话	-7663
夜来	-7664
大作	-7665
大哭	-7666
大排	-7667
大罗	-7668
天台	-7669
天理	-7670
天真	-7671
天高	-7672
失状	-7673
夹生	-7674
奋怒	-7675
奏乐	-7676
套去	-7677
女主	-7678
女国	-7679
好去	-7680
好吃	-7681
好心	-7682
好没	-7683
好蒸	-7684
如然	-7685
始初	-7686
子的	-7687
学士	-7688
孽龙	-7689
守着	-7690
安然	-7691
定计	-7692
宝树	-7693
实有	-7694
家书	-7695
宽心	-7696
宽怀	-7697
寻到	-7698
寻访	-7699
将金	-7700
小将	-7701
小小	-7702
小巧	-7703
尖利	-7704
尝尝	-7705
就拜	-7706
就装	-7707
就请	-7708
就跑	-7709
就问	-7710
展翅	-7711
山主	-7712
山南	-7713
山后	-7714
山水	-7715
山洞	-7716
岭峻	-7717
崖下	-7718
左遮	-7719
巧语	-7720
已晚	-7721
巴巴	-7722
师命	-7723
帝君	-7724
幢幡	-7725
并无	-7726
广寒	-7727
床上	-7728
应了	-7729
庵观	-7730
弄喧	-7731
张开	-7732
张挂	-7733
归善	-7734
形影	-7735
彩漆	-7736
往他	-7737
径投	-7738
径走	-7739
得命	-7740
得有	-7741
得水	-7742
御前	-7743
御酒	-7744
心神	-7745
心经	-7746
心重	-7747
忍疼	-7748
忒没	-7749
志心	-7750
忧疑	-7751
念着	-7752
怀中	-7753
怎不	-7754
怎能	-7755
思念	-7756
怯怯	-7757
惊疑	-7758
惧怕	-7759
惭愧	-7760
想我	-7761
意思	-7762
感叹	-7763
我上	-7764
我乃	-7765
我再	-7766
我即	-7767
我同	-7768
我想	-7769
我愿	-7770
我欲	-7771
我辈	-7772
户户	-7773
房中	-7774
房屋	-7775
房廊	-7776
手到	-7777
扌屑	-7778
才到	-7779
才见	-7780
打人	-7781
打坐	-7782
打探	-7783
打造	-7784
扛抬	-7785
扢挞	-7786
扫帚	-7787
扯断	-7788
把手	-7789
把身	-7790
投宿	-7791
抛起	-7792
披香	-7793
抬在	-7794
押赴	-7795
担儿	-7796
招了	-7797
拜罢	-7798
拜见	-7799
拥上	-7800
拿上	-7801
拿妖	-7802
拿我	-7803
拿起	-7804
挣挣	-7805
挨挨	-7806
挨排	-7807
接入	-7808
推出	-7809
搅扰	-7810
摄来	-7811
摆斋	-7812
摧林	-7813
摩诃	-7814
撑持	-7815
擎杯	-7816
擒他	-7817
擒住	-7818
擒魔	-7819
支吾	-7820
收下	-7821
收在	-7822
收来	-7823
改作	-7824
救拔	-7825
救援	-7826
救火	-7827
救生	-7828
救难	-7829
敝处	-7830
数次	-7831
斗木	-7832
断绝	-7833
无主	-7834
无名	-7835
无字	-7836
既不	-7837
日光	-7838
日色	-7839
早早	-7840
早朝	-7841
早来	-7842
旷野	-7843
昏乱	-7844
星光	-7845
春亭	-7846
是实	-7847
是要	-7848
是非	-7849
晚矣	-7850
晚辈	-7851
景象	-7852
智慧	-7853
有处	-7854
有这	-7855
望上	-7856
木鱼	-7857
未了	-7858
未完	-7859
未报	-7860
未毕	-7861
本山	-7862
杀场	-7863
杏仙	-7864
来寻	-7865
林深	-7866
枝头	-7867
枯藤	-7868
柳枝	-7869
标致	-7870
栈洞	-7871
根头	-7872
桌面	-7873
桥上	-7874
桩儿	-7875
梳洗	-7876
欢悦	-7877
欣喜	-7878
欲求	-7879
歇下	-7880
歇息	-7881
歌舞	-7882
武当	-7883
死也	-7884
死人	-7885
死在	-7886
殿里	-7887
每年	-7888
每日	-7889
毒药	-7890
比我	-7891
气的	-7892
氤氲	-7893
水边	-7894
永注	-7895
求方	-7896
江流	-7897
江湖	-7898
汤水	-7899
没及	-7900
河中	-7901
泪落	-7902
洞去	-7903
活水	-7904
流丢	-7905
济事	-7906
海内	-7907
海外	-7908
深感	-7909
清奇	-7910
清平	-7911
清清	-7912
清虚	-7913
滚了	-7914
滚鞍	-7915
满怀	-7916
漫漫	-7917
火把	-7918
火起	-7919
灯油	-7920
灵台	-7921
灵官	-7922
灾星	-7923
炉里	-7924
点兵	-7925
点卯	-7926
烈烈	-7927
烟波	-7928
烧汤	-7929
烧纸	-7930
照验	-7931
爬爬	-7932
牟尼	-7933
牢拴	-7934
犬吠	-7935
狠怪	-7936
狠毒	-7937
狼狈	-7938
狼虎	-7939
猪八	-7940
献果	-7941
玄猿	-7942
玄虚	-7943
王法	-7944
玩景	-7945
现成	-7946
理当	-7947
琼浆	-7948
瓶儿	-7949
生的	-7950
用力	-7951
田地	-7952
男人	-7953
留你	-7954
略略	-7955
疼了	-7956
白云	-7957
白米	-7958
白衣	-7959
白鹦	-7960
百花	-7961
的去	-7962
的头	-7963
皆空	-7964
皮靴	-7965
盗了	-7966
盘山	-7967
相待	-7968
相谢	-7969
盹睡	-7970
看打	-7971
看灯	-7972
真君	-7973
真性	-7974
眼光	-7975
眼道	-7976
着忙	-7977
着意	-7978
睁圆	-7979
砍下	-7980
神光	-7981
神风	-7982
禅僧	-7983
福陵	-7984
离城	-7985
称呼	-7986
称孤	-7987
移星	-7988
程途	-7989
空手	-7990
穿过	-7991
突突	-7992
窗外	-7993
窗棂	-7994
立地	-7995
笑语	-7996
笤帚	-7997
笼罩	-7998
笼里	-7999
等神	-8000
筏子	-8001
筑了	-8002
筑倒	-8003
筛锣	-8004
篮儿	-8005
篾丝	-8006
粗糙	-8007
素娥	-8008
素菜	-8009
紧了	-8010
红光	-8011
红日	-8012
红桃	-8013
红焰	-8014
约摸	-8015
约有	-8016
纵云	-8017
纵横	-8018
纵着	-8019
绳咒	-8020
缭绕	-8021
美色	-8022
美貌	-8023
群魔	-8024
翠柏	-8025
翡翠	-8026
老人	-8027
老妪	-8028
老沙	-8029
老爹	-8030
老翁	-8031
而不	-8032
耳聋	-8033
肉饼	-8034
胎气	-8035
胡同	-8036
胡缠	-8037
胭脂	-8038
胸前	-8039
脓血	-8040
脚力	-8041
脚踏	-8042
脱命	-8043
脱壳	-8044
脱胎	-8045
臭虫	-8046
舍身	-8047
舞剑	-8048
艳丽	-8049
花押	-8050
花落	-8051
花言	-8052
苔藓	-8053
若再	-8054
若果	-8055
苦劝	-8056
苦哉	-8057
苦留	-8058
茶来	-8059
药杵	-8060
莫敢	-8061
落胎	-8062
蓝靛	-8063
蓬瀛	-8064
蔓菁	-8065
虎啸	-8066
虚传	-8067
虱子	-8068
虽有	-8069
蜈蚣	-8070
蜜多	-8071
行路	-8072
街坊	-8073
衣帽	-8074
衣架	-8075
衣袖	-8076
表兄	-8077
衬钱	-8078
袅娜	-8079
袋儿	-8080
袍袖	-8081
西下	-8082
要往	-8083
要拿	-8084
要来	-8085
见人	-8086
见罪	-8087
观宇	-8088
解与	-8089
解渴	-8090
解释	-8091
解锁	-8092
计策	-8093
话来	-8094
详细	-8095
语言	-8096
说的	-8097
说罢	-8098
诵经	-8099
请你	-8100
请入	-8101
请得	-8102
请旨	-8103
谢我	-8104
贞观	-8105
财帛	-8106
败坏	-8107
贵人	-8108
费事	-8109
贼头	-8110
走动	-8111
走处	-8112
走着	-8113
走近	-8114
赶我	-8115
超生	-8116
超脱	-8117
越加	-8118
足有	-8119
跃浪	-8120
跪拜	-8121
踪影	-8122
身外	-8123
转来	-8124
轮拳	-8125
轻慢	-8126
边有	-8127
过得	-8128
过桥	-8129
还可	-8130
还归	-8131
还象	-8132
这句	-8133
这火	-8134
这老	-8135
进与	-8136
进贡	-8137
迦持	-8138
迸出	-8139
送下	-8140
送至	-8141
逃命	-8142
通红	-8143
遭逢	-8144
遮天	-8145
遮拦	-8146
那两	-8147
那是	-8148
那曾	-8149
那消	-8150
那等	-8151
那阵	-8152
都不	-8153
都睡	-8154
配偶	-8155
里有	-8156
野花	-8157
金殿	-8158
金锁	-8159
金鱼	-8160
铠甲	-8161
错认	-8162
镇海	-8163
长兄	-8164
长空	-8165
长蛇	-8166
门户	-8167
门的	-8168
闹闹	-8169
闻报	-8170
降得	-8171
降旨	-8172
降雨	-8173
随你	-8174
随手	-8175
难取	-8176
雏儿	-8177
雕漆	-8178
雪狮	-8179
零零	-8180
雷声	-8181
青天	-8182
非常	-8183
面容	-8184
面目	-8185
顶缸	-8186
项下	-8187
预修	-8188
领了	-8189
颔下	-8190
风而	-8191
飞出	-8192
飞来	-8193
饮宴	-8194
馕糟	-8195
香亭	-8196
马行	-8197
驮他	-8198
骂你	-8199
骨肉	-8200
高处	-8201
高崖	-8202
高强	-8203
鬓边	-8204
鲇鱼	-8205
鸟声	-8206
鸳鸯	-8207
鹤唳	-8208
麋鹿	-8209
黄精	-8210
黄道	-8211
黎庶	-8212
黑雾	-8213
鼋鼍	-8214
鼍龙	-8215
齐心	-8216
龟蛇	-8217
龟鳖	-8218
▁一双	-8219
▁一路	-8220
▁一阵	-8221
▁三日	-8222
▁不期	-8223
▁不见	-8224
▁不识	-8225
▁不题	-8226
▁也罢	-8227
▁些儿	-8228
▁他们	-8229
▁他却	-8230
▁他的	-8231
▁但见	-8232
▁何如	-8233
▁你们	-8234
▁做个	-8235
▁兢兢	-8236
▁其实	-8237
▁到此	-8238
▁即忙	-8239
▁变作	-8240
▁听得	-8241
▁喜道	-8242
▁回来	-8243
▁好歹	-8244
▁妖王	-8245
▁妖道	-8246
▁妖邪	-8247
▁小龙	-8248
▁左右	-8249
▁弟子	-8250
▁怎生	-8251
▁性命	-8252
▁怪物	-8253
▁慌得	-8254
▁教我	-8255
▁次早	-8256
▁猴子	-8257
▁看时	-8258
▁经的	-8259
▁老君	-8260
▁自从	-8261
▁莫想	-8262
▁袈裟	-8263
▁西天	-8264
▁贫僧	-8265
▁里边	-8266
▁骂道	-8267
一个人	-8268
一人不	-8269
一口气	-8270
一把火	-8271
一毂辘	-8272
一筋斗	-8273
三个人	-8274
三千年	-8275
三合敌	-8276
三藏问	-8277
上有一	-8278
上项事	-8279
下一个	-8280
下了马	-8281
不与你	-8282
不停当	-8283
不曾吃	-8284
不言语	-8285
与你们	-8286
与那怪	-8287
且不要	-8288
东土寻	-8289
个真假	-8290
乃东土	-8291
乌鸡国	-8292
也不须	-8293
乱石山	-8294
了一件	-8295
了一条	-8296
了几遍	-8297
二十卷	-8298
二十里	-8299
二层门	-8300
二郎道	-8301
五千零	-8302
人间少	-8303
他不知	-8304
他原来	-8305
他在那	-8306
他师徒	-8307
他这里	-8308
以心问	-8309
众僧们	-8310
会变化	-8311
传号令	-8312
伤了我	-8313
你不要	-8314
你且休	-8315
你吃了	-8316
你既是	-8317
你晓得	-8318
你若不	-8319
信不信	-8320
借扇子	-8321
假人头	-8322
做妖怪	-8323
偷他的	-8324
光头上	-8325
八戒将	-8326
冲撞了	-8327
几时得	-8328
出来了	-8329
出门前	-8330
分身法	-8331
到那厢	-8332
前日在	-8333
功折罪	-8334
十二日	-8335
却怎生	-8336
原来他	-8337
又一个	-8338
又吩咐	-8339
又奏道	-8340
又有些	-8341
又见他	-8342
取真经	-8343
只得依	-8344
只道是	-8345
叫小妖	-8346
向西来	-8347
和尚的	-8348
哄他一	-8349
唐老爷	-8350
喊一声	-8351
回东土	-8352
回去罢	-8353
回头道	-8354
国之富	-8355
在一处	-8356
在后面	-8357
在地窖	-8358
在山中	-8359
在旁道	-8360
在水中	-8361
在路上	-8362
在门前	-8363
多少时	-8364
好东西	-8365
好人家	-8366
好呆子	-8367
好妖怪	-8368
如今却	-8369
妈妈儿	-8370
妖怪的	-8371
妙岩宫	-8372
姓孙的	-8373
孤直公	-8374
实实的	-8375
对众道	-8376
对八戒	-8377
将上去	-8378
将关文	-8379
将起去	-8380
就教他	-8381
尽力气	-8382
山坡上	-8383
山背后	-8384
山脚下	-8385
山门前	-8386
巡山的	-8387
弄本事	-8388
弄神通	-8389
待天明	-8390
念个咒	-8391
忽失声	-8392
怎么这	-8393
怎的起	-8394
慌张张	-8395
我老猪	-8396
打死的	-8397
打破了	-8398
扢挞藤	-8399
把一座	-8400
把他那	-8401
把那些	-8402
把钉钯	-8403
抛绣球	-8404
披香殿	-8405
挡住道	-8406
捉弄我	-8407
掣出棒	-8408
接青霄	-8409
揭谛道	-8410
搭凉篷	-8411
摆布他	-8412
教他们	-8413
整一整	-8414
斗木獬	-8415
断然是	-8416
早到了	-8417
是他的	-8418
智渊寺	-8419
有一条	-8420
有一点	-8421
有多大	-8422
望菩萨	-8423
来往往	-8424
来看看	-8425
林子里	-8426
森森的	-8427
檐柱上	-8428
正走处	-8429
此所以	-8430
没本事	-8431
法华经	-8432
波月洞	-8433
洞门外	-8434
猴王道	-8435
王小二	-8436
生成的	-8437
登彼岸	-8438
的买卖	-8439
的笑道	-8440
的道人	-8441
盘丝洞	-8442
盘桓洞	-8443
看见是	-8444
真个也	-8445
真个那	-8446
真公主	-8447
着我来	-8448
知道了	-8449
碗子山	-8450
神通广	-8451
祭赛国	-8452
禁不得	-8453
称谢了	-8454
童男女	-8455
笑嘻嘻	-8456
管事的	-8457
系一条	-8458
紧紧的	-8459
老孙是	-8460
老王道	-8461
老院主	-8462
老鼋道	-8463
胡说了	-8464
莫不是	-8465
菩萨的	-8466
葫芦儿	-8467
葫芦里	-8468
蛇盘山	-8469
被八戒	-8470
被那怪	-8471
见三藏	-8472
见了他	-8473
见玉帝	-8474
角木蛟	-8475
认认看	-8476
说声去	-8477
说得好	-8478
请三藏	-8479
请来的	-8480
象一个	-8481
败下阵	-8482
赭黄袍	-8483
赶早儿	-8484
起来了	-8485
起来道	-8486
趁早去	-8487
跳下来	-8488
辟尘儿	-8489
这一下	-8490
这一棒	-8491
这个说	-8492
这半日	-8493
这太子	-8494
这家子	-8495
这桩事	-8496
这里人	-8497
进去了	-8498
进洞去	-8499
造化低	-8500
道人说	-8501
遭毒手	-8502
那一日	-8503
那二魔	-8504
那大王	-8505
那女王	-8506
那洞里	-8507
那猴道	-8508
那老龙	-8509
那里不	-8510
那魔头	-8511
那魔道	-8512
都吃了	-8513
里面坐	-8514
金箍儿	-8515
钱银子	-8516
锦衣卫	-8517
锦衣官	-8518
隐身法	-8519
雄纠纠	-8520
青脸儿	-8521
须弥山	-8522
风云雷	-8523
黄风怪	-8524
▁你不知	-8525
▁原来那	-8526
▁又见那	-8527
▁唐僧道	-8528
▁孙悟空	-8529
▁常言道	-8530
▁行者看	-8531
▁那唐僧	-8532
▁那大仙	-8533
▁那妖王	-8534
▁那怪道	-8535
▁须臾间	-8536
一阵狂风	-8537
一齐下手	-8538
七个蜘蛛	-8539
不敢仰视	-8540
不是凡间	-8541
不知是甚	-8542
不知死活	-8543
两个小妖	-8544
乌巢禅师	-8545
九头狮子	-8546
了你师父	-8547
二位长老	-8548
二百七十	-8549
五凤楼前	-8550
五谷丰登	-8551
以心问心	-8552
伏虎降龙	-8553
低下云头	-8554
你回去罢	-8555
你在那里	-8556
你怎么又	-8557
你有什么	-8558
你这呆子	-8559
你这和尚	-8560
做了徒弟	-8561
兄弟三人	-8562
八戒见了	-8563
公主娘娘	-8564
几两银子	-8565
分开水路	-8566
到我这里	-8567
十分无礼	-8568
半山之中	-8569
却怎么好	-8570
却怎么就	-8571
又有一个	-8572
取出一个	-8573
取得经回	-8574
取经回来	-8575
各持兵器	-8576
唐僧四众	-8577
唱个喏道	-8578
唿哨一声	-8579
四大金刚	-8580
四马攒蹄	-8581
回头观看	-8582
在于何处	-8583
城池相近	-8584
大呼小叫	-8585
大圣笑道	-8586
大慈大悲	-8587
天罗地网	-8588
如此如此	-8589
孤直公道	-8590
害我师父	-8591
害杀我也	-8592
寇梁兄弟	-8593
将身一幌	-8594
将金箍棒	-8595
小张太子	-8596
小雷音寺	-8597
山门之外	-8598
应了一声	-8599
庵观寺院	-8600
往西天去	-8601
得了性命	-8602
心中害怕	-8603
心中暗喜	-8604
急架相迎	-8605
悟空行者	-8606
我晓得了	-8607
我的宝贝	-8608
打个问讯	-8609
打了一个	-8610
托塔天王	-8611
把猪八戒	-8612
护国天王	-8613
抵敌不住	-8614
拿住妖精	-8615
拿在手中	-8616
措手不及	-8617
放起火来	-8618
救我师父	-8619
教小的们	-8620
日值功曹	-8621
是个和尚	-8622
是个妖怪	-8623
是什么人	-8624
更不打话	-8625
更无一个	-8626
有些手段	-8627
正在那里	-8628
甚不过意	-8629
看得明白	-8630
等我出去	-8631
精细鬼道	-8632
绑在树上	-8633
绵布直裰	-8634
翻江搅海	-8635
老孙自有	-8636
虎力大仙	-8637
行者低头	-8638
行者回头	-8639
行者在旁	-8640
行者把那	-8641
谢了行者	-8642
轮着铁棒	-8643
轮起铁棒	-8644
辟尘大王	-8645
辨明邪正	-8646
过去未来	-8647
逃了性命	-8648
那猪八戒	-8649
那行者也	-8650
那里认得	-8651
问他一声	-8652
闯将进去	-8653
降龙伏虎	-8654
顶礼不尽	-8655
餐风宿水	-8656
骨软筋麻	-8657
鹰愁陡涧	-8658
黄金宝塔	-8659
▁三藏见了	-8660
▁却说八戒	-8661
▁师徒四众	-8662
▁有诗为证	-8663
▁那怪闻言	-8664
上西天拜佛	-8665
不知在那里	-8666
与八戒沙僧	-8667
九曲盘桓洞	-8668
五千四百岁	-8669
你往那里去	-8670
保唐僧取经	-8671
口里不住的	-8672
呵呵冷笑道	-8673
喝了一声道	-8674
备陈了一遍	-8675
师父在那里	-8676
战兢兢的道	-8677
拔一根毫毛	-8678
拜佛求经者	-8679
止不住眼中	-8680
虎力大仙道	-8681
行者陪笑道	-8682
辟水金睛兽	-8683
递与行者道	-8684
▁厉声高叫道	-8685
差往西天取经	-8686
往西天取经的	-8687
拔下一根毫毛	-8688
花果山水帘洞	-8689
送我师父出来	-8690
号山枯松涧火云洞	-8691
’,	-8692
”!	-8693
▁。	-8694
▁专	-8695
▁临	-8696
▁举	-8697
▁件	-8698
▁倚	-8699
▁借	-8700
▁偷	-8701
▁况	-8702
▁冷	-8703
▁凶	-8704
▁刀	-8705
▁刺	-8706
▁刻	-8707
▁历	-8708
▁压	-8709
▁厢	-8710
▁双	-8711
▁叙	-8712
▁右	-8713
▁号	-8714
▁呀	-8715
▁唤	-8716
▁喝	-8717
▁奏	-8718
▁奔	-8719
▁妙	-8720
▁娇	-8721
▁学	-8722
▁容	-8723
▁宿	-8724
▁寺	-8725
▁尺	-8726
▁层	-8727
▁岂	-8728
▁峰	-8729
▁布	-8730
▁幌	-8731
▁强	-8732
▁微	-8733
▁怎	-8734
▁恼	-8735
▁悟	-8736
▁惟	-8737
▁户	-8738
▁所	-8739
▁执	-8740
▁抬	-8741
▁持	-8742
▁换	-8743
▁暗	-8744
▁更	-8745
▁最	-8746
▁朱	-8747
▁杯	-8748
▁柳	-8749
▁求	-8750
▁沙	-8751
▁涧	-8752
▁渡	-8753
▁焰	-8754
▁现	-8755
▁班	-8756
▁病	-8757
▁登	-8758
▁盈	-8759
▁盛	-8760
▁目	-8761
▁私	-8762
▁竹	-8763
▁箍	-8764
▁素	-8765
▁结	-8766
▁缠	-8767
▁罪	-8768
▁翅	-8769
▁背	-8770
▁脸	-8771
▁药	-8772
▁菜	-8773
▁蓬	-8774
▁装	-8775
▁觉	-8776
▁赤	-8777
▁跑	-8778
▁轮	-8779
▁辞	-8780
▁郎	-8781
▁采	-8782
▁重	-8783
▁钟	-8784
▁锦	-8785
▁顿	-8786
一两	-8787
一刀	-8788
一味	-8789
一国	-8790
一封	-8791
一层	-8792
一幅	-8793
一应	-8794
一扭	-8795
一拳	-8796
一按	-8797
一掼	-8798
一摸	-8799
一撞	-8800
一杆	-8801
一株	-8802
一次	-8803
一段	-8804
一气	-8805
一班	-8806
一簇	-8807
一跳	-8808
一饮	-8809
一首	-8810
一骨	-8811
丁甲	-8812
七宿	-8813
七日	-8814
万八	-8815
万分	-8816
万户	-8817
万段	-8818
万缘	-8819
万苦	-8820
万迭	-8821
三头	-8822
三家	-8823
三怪	-8824
三月	-8825
三次	-8826
三转	-8827
三途	-8828
三间	-8829
上两	-8830
上写	-8831
上刹	-8832
上官	-8833
上路	-8834
下个	-8835
下次	-8836
下饭	-8837
不严	-8838
不宁	-8839
不开	-8840
不惧	-8841
不染	-8842
不真	-8843
不睬	-8844
不谨	-8845
不足	-8846
不辞	-8847
不遵	-8848
不长	-8849
不驮	-8850
与世	-8851
与老	-8852
丑自	-8853
且把	-8854
且退	-8855
丛里	-8856
东张	-8857
丝不	-8858
丝篷	-8859
丝诊	-8860
丞相	-8861
两句	-8862
两处	-8863
两旁	-8864
两行	-8865
两路	-8866
两鬓	-8867
严经	-8868
丫叉	-8869
中之	-8870
中厅	-8871
中的	-8872
中选	-8873
中途	-8874
丰采	-8875
为上	-8876
为丸	-8877
为名	-8878
为怪	-8879
为生	-8880
主婚	-8881
久等	-8882
之器	-8883
之宅	-8884
之寿	-8885
之形	-8886
之念	-8887
之性	-8888
之有	-8889
之术	-8890
之火	-8891
之灾	-8892
之祖	-8893
之面	-8894
乖巧	-8895
乘风	-8896
乞为	-8897
也似	-8898
也可	-8899
也吃	-8900
乱讲	-8901
乱骂	-8902
了四	-8903
了火	-8904
了眼	-8905
了脚	-8906
了道	-8907
争强	-8908
争战	-8909
事儿	-8910
二八	-8911
二公	-8912
二千	-8913
二回	-8914
二童	-8915
二难	-8916
亏他	-8917
云楼	-8918
云生	-8919
五部	-8920
井里	-8921
亡斋	-8922
交与	-8923
交合	-8924
交手	-8925
交还	-8926
亦可	-8927
亮了	-8928
亲友	-8929
人夫	-8930
人才	-8931
人生	-8932
人语	-8933
今宵	-8934
今至	-8935
从何	-8936
从实	-8937
他个	-8938
他先	-8939
他必	-8940
他问	-8941
仗着	-8942
仙乡	-8943
仙家	-8944
仙果	-8945
仙花	-8946
会降	-8947
传宣	-8948
伸下	-8949
伸头	-8950
似我	-8951
但得	-8952
但我	-8953
但看	-8954
住口	-8955
住居	-8956
何曾	-8957
作揖	-8958
作起	-8959
你与	-8960
你叫	-8961
你师	-8962
你弄	-8963
你认	-8964
使枪	-8965
使起	-8966
供桌	-8967
依命	-8968
依路	-8969
便好	-8970
便宜	-8971
便知	-8972
便砍	-8973
俊俏	-8974
俗家	-8975
修竹	-8976
修身	-8977
俱在	-8978
俱已	-8979
倒头	-8980
倒断	-8981
倒洞	-8982
倒的	-8983
借了	-8984
假佛	-8985
偏你	-8986
做两	-8987
做饭	-8988
偷吃	-8989
偿命	-8990
儿洞	-8991
先天	-8992
八回	-8993
八月	-8994
八难	-8995
六尺	-8996
六根	-8997
六百	-8998
六臂	-8999
关上	-9000
关厢	-9001
其罪	-9002
其间	-9003
具言	-9004
养育	-9005
内中	-9006
内宫	-9007
再行	-9008
冒冒	-9009
冤屈	-9010
冬残	-9011
冰冻	-9012
冰肌	-9013
冷淡	-9014
冷风	-9015
净坛	-9016
几件	-9017
几层	-9018
几杯	-9019
凡马	-9020
凶星	-9021
凶险	-9022
出些	-9023
出厅	-9024
出的	-9025
出离	-9026
分文	-9027
分离	-9028
切休	-9029
刚鬣	-9030
判官	-9031
利刃	-9032
刮得	-9033
到你	-9034
到彼	-9035
到晚	-9036
制药	-9037
前生	-9038
前迎	-9039
剪尾	-9040
劈破	-9041
办些	-9042
办饭	-9043
动脚	-9044
动问	-9045
助功	-9046
劳苦	-9047
勿虑	-9048
包儿	-9049
化成	-9050
化身	-9051
化龙	-9052
匣子	-9053
千乞	-9054
千方	-9055
千秋	-9056
千载	-9057
千辛	-9058
千门	-9059
华光	-9060
华盖	-9061
南面	-9062
即与	-9063
即位	-9064
即使	-9065
却早	-9066
却都	-9067
却问	-9068
却难	-9069
卵石	-9070
卸了	-9071
厅堂	-9072
压惊	-9073
原有	-9074
厨中	-9075
厮斗	-9076
去报	-9077
去看	-9078
去耶	-9079
参见	-9080
又与	-9081
又各	-9082
又名	-9083
又拜	-9084
又斗	-9085
又没	-9086
又行	-9087
又都	-9088
反为	-9089
反复	-9090
发落	-9091
发誓	-9092
取下	-9093
口乐	-9094
口诀	-9095
口说	-9096
古佛	-9097
古柏	-9098
只把	-9099
叫得	-9100
叫苦	-9101
叶落	-9102
吃水	-9103
吃荤	-9104
各官	-9105
各怀	-9106
各饮	-9107
吉日	-9108
吊起	-9109
同天	-9110
同来	-9111
名声	-9112
名色	-9113
后宅	-9114
含糊	-9115
听了	-9116
听讲	-9117
告求	-9118
告辞	-9119
周济	-9120
咄的	-9121
哭啼	-9122
哼哩	-9123
哼道	-9124
唧唧	-9125
善会	-9126
善心	-9127
喇喇	-9128
喇的	-9129
喜得	-9130
喧天	-9131
嗳雾	-9132
嘉会	-9133
器皿	-9134
四僧	-9135
四声	-9136
四季	-9137
四尺	-9138
四日	-9139
四星	-9140
四顾	-9141
回嗔	-9142
回城	-9143
因我	-9144
团花	-9145
园内	-9146
围了	-9147
围困	-9148
围圆	-9149
国主	-9150
国内	-9151
国土	-9152
圣象	-9153
在半	-9154
地厚	-9155
地的	-9156
城东	-9157
堪夸	-9158
塔下	-9159
壁上	-9160
复复	-9161
外国	-9162
多谢	-9163
多远	-9164
大会	-9165
大使	-9166
大指	-9167
大教	-9168
大难	-9169
大驾	-9170
天哪	-9171
天子	-9172
天应	-9173
天弄	-9174
天心	-9175
天戟	-9176
天晴	-9177
天罡	-9178
天赐	-9179
天边	-9180
太甚	-9181
头痛	-9182
夸称	-9183
奇珍	-9184
奉请	-9185
女人	-9186
女流	-9187
女菩	-9188
奴奴	-9189
好大	-9190
好打	-9191
如不	-9192
如之	-9193
如山	-9194
如电	-9195
如雨	-9196
妖兽	-9197
妖楼	-9198
妖气	-9199
妖火	-9200
妖道	-9201
妙哉	-9202
妹妹	-9203
姊妹	-9204
姻缘	-9205
威仪	-9206
威灵	-9207
婆娑	-9208
婚姻	-9209
嫉妒	-9210
孔窍	-9211
字旗	-9212
存亡	-9213
存身	-9214
孙子	-9215
孤掌	-9216
孽障	-9217
安宁	-9218
宝物	-9219
实信	-9220
害疼	-9221
家师	-9222
家长	-9223
宽恩	-9224
宾城	-9225
寒风	-9226
寝处	-9227
寸步	-9228
对着	-9229
寻看	-9230
寻那	-9231
封皮	-9232
将有	-9233
将绳	-9234
将门	-9235
小厮	-9236
小名	-9237
小圣	-9238
小道	-9239
少吉	-9240
尖尖	-9241
尖枪	-9242
尚且	-9243
尝新	-9244
就到	-9245
就好	-9246
就死	-9247
就知	-9248
就见	-9249
就说	-9250
就长	-9251
尸骸	-9252
尽了	-9253
屁股	-9254
层冰	-9255
山妻	-9256
山有	-9257
山来	-9258
山泉	-9259
山的	-9260
山禽	-9261
山野	-9262
岂无	-9263
岭头	-9264
峦头	-9265
峨眉	-9266
巡逻	-9267
巧计	-9268
已被	-9269
布云	-9270
布锦	-9271
师相	-9272
帘栊	-9273
带他	-9274
带去	-9275
带累	-9276
干得	-9277
干饭	-9278
年寿	-9279
年深	-9280
幸蒙	-9281
庄严	-9282
庙宇	-9283
府城	-9284
庞刘	-9285
度日	-9286
度牒	-9287
庶几	-9288
开些	-9289
开山	-9290
开花	-9291
开锁	-9292
异卉	-9293
异宝	-9294
异样	-9295
弄我	-9296
引子	-9297
引导	-9298
引着	-9299
张道	-9300
弱水	-9301
归阴	-9302
归顺	-9303
当值	-9304
当殿	-9305
当真	-9306
彩旗	-9307
影里	-9308
彻底	-9309
径下	-9310
径出	-9311
待客	-9312
得些	-9313
得住	-9314
得这	-9315
御手	-9316
御状	-9317
微露	-9318
忙呼	-9319
念诵	-9320
念那	-9321
怎禁	-9322
思乡	-9323
恐你	-9324
恭喜	-9325
惊了	-9326
惊天	-9327
惊怕	-9328
惊散	-9329
惹祸	-9330
慌的	-9331
慢行	-9332
懈怠	-9333
成此	-9334
我了	-9335
我事	-9336
我听	-9337
我带	-9338
我恐	-9339
我父	-9340
我知	-9341
我见	-9342
我闻	-9343
战斗	-9344
戴了	-9345
戴的	-9346
房头	-9347
房子	-9348
房宇	-9349
手内	-9350
才敢	-9351
才自	-9352
打一	-9353
打么	-9354
打到	-9355
打柴	-9356
打猎	-9357
打紧	-9358
执事	-9359
扫除	-9360
扯他	-9361
扯出	-9362
扯过	-9363
扳翻	-9364
扶起	-9365
承过	-9366
把前	-9367
把势	-9368
把经	-9369
投胎	-9370
抛在	-9371
护短	-9372
护驾	-9373
抬来	-9374
抱住	-9375
抱着	-9376
抵赖	-9377
抹抹	-9378
担山	-9379
担搁	-9380
担着	-9381
拆凤	-9382
拉拉	-9383
拥护	-9384
拴住	-9385
持斋	-9386
挂着	-9387
挑包	-9388
挽着	-9389
捆倒	-9390
捞上	-9391
换斗	-9392
捧出	-9393
捽碎	-9394
掣钯	-9395
掩上	-9396
揣在	-9397
搜寻	-9398
搜检	-9399
搬柴	-9400
摆尾	-9401
摇动	-9402
摇得	-9403
摇着	-9404
撒手	-9405
撤身	-9406
擅入	-9407
操演	-9408
擎天	-9409
攒攒	-9410
收回	-9411
收留	-9412
收藏	-9413
放声	-9414
故事	-9415
故知	-9416
救了	-9417
敖闰	-9418
敢劳	-9419
敢称	-9420
散碎	-9421
数里	-9422
敲门	-9423
整束	-9424
文洗	-9425
斋筵	-9426
斟上	-9427
新鲜	-9428
方来	-9429
方法	-9430
施功	-9431
旃檀	-9432
旌阳	-9433
无伤	-9434
无力	-9435
无功	-9436
无所	-9437
无有	-9438
无水	-9439
无生	-9440
无疑	-9441
无虚	-9442
无限	-9443
日日	-9444
日映	-9445
日落	-9446
早知	-9447
早行	-9448
早被	-9449
时间	-9450
明朝	-9451
明示	-9452
昔年	-9453
星星	-9454
春风	-9455
昭阳	-9456
是件	-9457
晓行	-9458
曲曲	-9459
更加	-9460
更没	-9461
更深	-9462
月牙	-9463
有云	-9464
有佛	-9465
有数	-9466
有斋	-9467
有根	-9468
有火	-9469
有用	-9470
有诗	-9471
有路	-9472
有钱	-9473
朔风	-9474
朕当	-9475
朝官	-9476
朝朝	-9477
未得	-9478
本国	-9479
本壳	-9480
朱唇	-9481
机谋	-9482
杀气	-9483
杂树	-9484
来于	-9485
来奏	-9486
来是	-9487
来朝	-9488
来相	-9489
来问	-9490
松树	-9491
松阴	-9492
林坡	-9493
枪来	-9494
枪迎	-9495
枷锁	-9496
柜盖	-9497
柳棍	-9498
样棍	-9499
样的	-9500
梢公	-9501
梢头	-9502
梦魂	-9503
棒子	-9504
棒迎	-9505
棒重	-9506
棺木	-9507
棺材	-9508
楼头	-9509
概众	-9510
樱唇	-9511
樱桃	-9512
欺人	-9513
欺负	-9514
歇歇	-9515
止有	-9516
正月	-9517
正直	-9518
此情	-9519
此经	-9520
武洗	-9521
死心	-9522
殿宇	-9523
母子	-9524
比并	-9525
毛片	-9526
毛贼	-9527
水声	-9528
永镇	-9529
沙和	-9530
沙馅	-9531
没理	-9532
没计	-9533
河水	-9534
法王	-9535
法界	-9536
法衣	-9537
波中	-9538
波翻	-9539
泪滴	-9540
泾河	-9541
洁净	-9542
洒洒	-9543
洗净	-9544
洞的	-9545
浆洗	-9546
浪滚	-9547
海东	-9548
海岛	-9549
海水	-9550
海藏	-9551
涅槃	-9552
涉水	-9553
涓涓	-9554
涧下	-9555
涧底	-9556
淅淅	-9557
深远	-9558
添换	-9559
添饭	-9560
清凉	-9561
清泉	-9562
渔翁	-9563
渔鼓	-9564
渡河	-9565
渴饮	-9566
游遍	-9567
滚就	-9568
漠然	-9569
火势	-9570
火灭	-9571
灯前	-9572
灯烛	-9573
灵丹	-9574
灵光	-9575
灿烂	-9576
炉内	-9577
炎天	-9578
炎热	-9579
点化	-9580
炼丹	-9581
炼成	-9582
烧些	-9583
烧死	-9584
煎汤	-9585
煎熬	-9586
爆燥	-9587
爱欲	-9588
牙迸	-9589
牛羊	-9590
狮仙	-9591
狱中	-9592
猖獗	-9593
猜枚	-9594
獬豸	-9595
玄鹤	-9596
玉女	-9597
玉液	-9598
玉龙	-9599
环眼	-9600
现相	-9601
珊瑚	-9602
珠帘	-9603
珠玉	-9604
珠翠	-9605
瓦钵	-9606
瓶来	-9607
甚当	-9608
甚有	-9609
生事	-9610
生时	-9611
生祠	-9612
生身	-9613
生辉	-9614
生铁	-9615
用得	-9616
用着	-9617
田产	-9618
申时	-9619
电母	-9620
男身	-9621
画栋	-9622
痨病	-9623
登坛	-9624
白布	-9625
白泽	-9626
百个	-9627
百川	-9628
百拜	-9629
的怪	-9630
的真	-9631
的行	-9632
的跑	-9633
皆因	-9634
皆有	-9635
皎洁	-9636
皮肤	-9637
皱眉	-9638
盈盈	-9639
盖住	-9640
盘旋	-9641
盛意	-9642
直的	-9643
相从	-9644
相似	-9645
相斗	-9646
相还	-9647
相连	-9648
相遇	-9649
看这	-9650
真形	-9651
真心	-9652
眼下	-9653
眼力	-9654
眼里	-9655
着身	-9656
着钯	-9657
睡了	-9658
睡去	-9659
瞑目	-9660
矗矗	-9661
知得	-9662
知识	-9663
短软	-9664
石凳	-9665
石桥	-9666
破荤	-9667
碎尸	-9668
碗盏	-9669
磨刀	-9670
祈祷	-9671
祖居	-9672
神人	-9673
神力	-9674
禅机	-9675
离恨	-9676
秀丽	-9677
秀士	-9678
秀才	-9679
秃厮	-9680
秋风	-9681
称名	-9682
称扬	-9683
秽污	-9684
稀柿	-9685
稳便	-9686
稻草	-9687
稽首	-9688
穿得	-9689
穿花	-9690
突兀	-9691
窈窕	-9692
立下	-9693
立的	-9694
站立	-9695
端然	-9696
竹杖	-9697
笑云	-9698
笑笑	-9699
笑话	-9700
第十	-9701
等你	-9702
等待	-9703
等闲	-9704
筋力	-9705
管你	-9706
管取	-9707
粉汤	-9708
粗俗	-9709
粘涎	-9710
素果	-9711
素食	-9712
索绑	-9713
紧锁	-9714
红尘	-9715
红霞	-9716
终是	-9717
经云	-9718
经儿	-9719
经堂	-9720
绑缚	-9721
绝了	-9722
绝妙	-9723
绣带	-9724
绫罗	-9725
绰枪	-9726
绳缠	-9727
绿柳	-9728
绿水	-9729
缘法	-9730
缚妖	-9731
缝儿	-9732
罩住	-9733
羊脂	-9734
美后	-9735
群生	-9736
羽林	-9737
翻翻	-9738
老姆	-9739
老祖	-9740
老鼠	-9741
而成	-9742
而进	-9743
耽搁	-9744
聊表	-9745
聒噪	-9746
聪明	-9747
肚中	-9748
胆小	-9749
背阴	-9750
胸膛	-9751
能彀	-9752
能知	-9753
脑浆	-9754
脱手	-9755
膏药	-9756
自此	-9757
自称	-9758
至于	-9759
至前	-9760
致谢	-9761
舍得	-9762
舒身	-9763
舞蹈	-9764
良宵	-9765
色空	-9766
芒鞋	-9767
花草	-9768
花鞋	-9769
苍苍	-9770
苟毕	-9771
若依	-9772
若大	-9773
苦战	-9774
苦捱	-9775
苦的	-9776
英豪	-9777
茅舍	-9778
茶汤	-9779
茶药	-9780
草舍	-9781
草鞋	-9782
荔枝	-9783
荤的	-9784
药品	-9785
药师	-9786
莲座	-9787
落地	-9788
落空	-9789
蒸了	-9790
蒸熟	-9791
蔼蔼	-9792
藏风	-9793
藜杖	-9794
虔诚	-9795
虚实	-9796
虚度	-9797
虚情	-9798
虚惊	-9799
虼蚤	-9800
蝼蚁	-9801
蟭虫	-9802
蟹鳖	-9803
血食	-9804
行人	-9805
行此	-9806
行行	-9807
行近	-9808
衲衣	-9809
被一	-9810
被人	-9811
被怪	-9812
西东	-9813
要与	-9814
要你	-9815
要把	-9816
要捉	-9817
观此	-9818
解阳	-9819
言来	-9820
誓愿	-9821
计就	-9822
讲处	-9823
讲论	-9824
设了	-9825
识认	-9826
诚是	-9827
话间	-9828
语去	-9829
说些	-9830
说有	-9831
说法	-9832
说甚	-9833
说破	-9834
说谎	-9835
说间	-9836
请书	-9837
请我	-9838
请问	-9839
诸仙	-9840
诸般	-9841
读书	-9842
谁人	-9843
谈经	-9844
谣言	-9845
象他	-9846
负痛	-9847
贤王	-9848
败走	-9849
贪图	-9850
贴上	-9851
费力	-9852
贼徒	-9853
赌赛	-9854
赏玩	-9855
赐坐	-9856
赐我	-9857
赤脚	-9858
走哩	-9859
走至	-9860
赶得	-9861
赶着	-9862
起了	-9863
起手	-9864
足矣	-9865
跑过	-9866
跟定	-9867
跟寻	-9868
跟着	-9869
跨上	-9870
踏云	-9871
踢死	-9872
身亡	-9873
车驾	-9874
转意	-9875
转步	-9876
转涧	-9877
转生	-9878
转达	-9879
轮剑	-9880
软了	-9881
轻巧	-9882
辉辉	-9883
边道	-9884
迎来	-9885
迎迓	-9886
近来	-9887
还原	-9888
还来	-9889
还生	-9890
还礼	-9891
这不	-9892
这位	-9893
这钯	-9894
这阵	-9895
进前	-9896
进宫	-9897
进府	-9898
进拜	-9899
远了	-9900
连你	-9901
迷人	-9902
迸迸	-9903
追至	-9904
追袭	-9905
送我	-9906
送来	-9907
逐日	-9908
递了	-9909
递解	-9910
造孽	-9911
逢灾	-9912
遁法	-9913
遍体	-9914
道德	-9915
道果	-9916
道者	-9917
道行	-9918
道道	-9919
遭贬	-9920
遭魔	-9921
遵依	-9922
避水	-9923
避火	-9924
那僧	-9925
那只	-9926
那呆	-9927
那国	-9928
那猴	-9929
那白	-9930
那虎	-9931
郁郁	-9932
都叫	-9933
都摄	-9934
释教	-9935
释迦	-9936
重了	-9937
金的	-9938
金盔	-9939
金阶	-9940
钗环	-9941
钢枪	-9942
钢钻	-9943
钢鞭	-9944
钯来	-9945
钻进	-9946
铜钱	-9947
银河	-9948
锁住	-9949
锣鼓	-9950
镇守	-9951
长亭	-9952
长斋	-9953
门口	-9954
闪出	-9955
闪在	-9956
闯入	-9957
闲事	-9958
闲叙	-9959
闲行	-9960
闲讲	-9961
阁下	-9962
阁门	-9963
阳寿	-9964
阵阵	-9965
阻滞	-9966
阻路	-9967
阿七	-9968
降祥	-9969
除邪	-9970
陷空	-9971
难敌	-9972
难解	-9973
难辨	-9974
难过	-9975
难逃	-9976
雄才	-9977
雨下	-9978
雨露	-9979
雷山	-9980
雷打	-9981
雷霆	-9982
青牛	-9983
青锋	-9984
非是	-9985
面如	-9986
面赤	-9987
面饭	-9988
音信	-9989
顶门	-9990
顿饭	-9991
颂子	-9992
领旨	-9993
颜色	-9994
风光	-9995
飒飒	-9996
飘然	-9997
飞跑	-9998
食了	-9999
饥渴	-10000
饱餐	-10001
香汤	-10002
香烛	-10003
香花	-10004
香蕈	-10005
馨香	-10006
马流	-10007
驿中	-10008
骂战	-10009
骏马	-10010
骑上	-10011
骸骨	-10012
高升	-10013
高姓	-10014
高楼	-10015
鬼王	-10016
鱼篮	-10017
鲜血	-10018
鸟鹊	-10019
鸡犬	-10020
鸡鹅	-10021
鸾凤	-10022
鸿蒙	-10023
鹤氅	-10024
黄旗	-10025
黄鹂	-10026
黑夜	-10027
齐备	-10028
龙位	-10029
龙华	-10030
龙蛇	-10031
龙踵	-10032
龙须	-10033
▁。”	-10034
▁一则	-10035
▁一只	-10036
▁一场	-10037
▁一般	-10038
▁三个	-10039
▁不会	-10040
▁不必	-10041
▁不要	-10042
▁九齿	-10043
▁了他	-10044
▁他那	-10045
▁众官	-10046
▁众猴	-10047
▁儿子	-10048
▁关文	-10049
▁到了	-10050
▁前面	-10051
▁劲节	-10052
▁十八	-10053
▁南无	-10054
▁南海	-10055
▁即时	-10056
▁却也	-10057
▁却似	-10058
▁去罢	-10059
▁双手	-10060
▁变做	-10061
▁只为	-10062
▁只得	-10063
▁吆喝	-10064
▁呼呼	-10065
▁哥哥	-10066
▁在那	-10067
▁多时	-10068
▁天尊	-10069
▁妇人	-10070
▁娘娘	-10071
▁少顷	-10072
▁干净	-10073
▁形容	-10074
▁徒们	-10075
▁得个	-10076
▁得是	-10077
▁念念	-10078
▁恐怕	-10079
▁悟能	-10080
▁慌忙	-10081
▁我是	-10082
▁我这	-10083
▁打死	-10084
▁把个	-10085
▁把我	-10086
▁抬头	-10087
▁拿了	-10088
▁放心	-10089
▁日月	-10090
▁有人	-10091
▁未曾	-10092
▁正果	-10093
▁正欲	-10094
▁正行	-10095
▁此言	-10096
▁比丘	-10097
▁渐渐	-10098
▁满地	-10099
▁烦恼	-10100
▁猴王	-10101
▁皇帝	-10102
▁磕头	-10103
▁祖居	-10104
▁祥光	-10105
▁老爷	-10106
▁而去	-10107
▁耳朵	-10108
▁自幼	-10109
▁观看	-10110
▁言道	-10111
▁认得	-10112
▁走路	-10113
▁轻轻	-10114
▁还有	-10115
▁逍遥	-10116
▁那贼	-10117
▁那魔	-10118
▁降妖	-10119
▁陛下	-10120
▁魔头	-10121
一些儿	-10122
一十八	-10123
一口钟	-10124
一夜无	-10125
一家儿	-10126
一百个	-10127
一翅飞	-10128
一顿钯	-10129
一齐都	-10130
七八个	-10131
丈高下	-10132
三十名	-10133
三大王	-10134
三藏教	-10135
三藏的	-10136
三藏等	-10137
三藏闻	-10138
上岸来	-10139
下去了	-10140
下油锅	-10141
下泪来	-10142
不一日	-10143
不中吃	-10144
不停蹄	-10145
不好蒸	-10146
不得那	-10147
不是我	-10148
不期他	-10149
不知他	-10150
不能得	-10151
不要怕	-10152
不要钱	-10153
与他斗	-10154
与天王	-10155
与太子	-10156
丑自丑	-10157
且莫忙	-10158
且莫说	-10159
丝诊脉	-10160
两只手	-10161
之徒弟	-10162
乒乒乓	-10163
也不怕	-10164
也是他	-10165
也有些	-10166
也没有	-10167
也罢了	-10168
买猪羊	-10169
乱嚷道	-10170
了三个	-10171
了他一	-10172
了你也	-10173
了坐次	-10174
了我罢	-10175
了马匹	-10176
二三十	-10177
二三年	-10178
二则是	-10179
二十岁	-10180
云来雾	-10181
云栈洞	-10182
五六十	-10183
五十个	-10184
五百个	-10185
五百名	-10186
些和尚	-10187
亢金龙	-10188
今日却	-10189
他一下	-10190
他一戏	-10191
他一把	-10192
他也曾	-10193
他们都	-10194
他四众	-10195
他徒弟	-10196
他必然	-10197
他说我	-10198
令小妖	-10199
众妖道	-10200
众官道	-10201
众怪道	-10202
优婆塞	-10203
传旨教	-10204
伸手去	-10205
佛祖道	-10206
你不信	-10207
你令郎	-10208
你们也	-10209
你儿子	-10210
你原来	-10211
你把我	-10212
你父王	-10213
你若肯	-10214
使法力	-10215
使神通	-10216
侮着嘴	-10217
假唐僧	-10218
做一个	-10219
儿耍子	-10220
光明宫	-10221
兕大王	-10222
入洞中	-10223
公公道	-10224
六健将	-10225
内有一	-10226
凌云渡	-10227
凌虚子	-10228
几层门	-10229
几番家	-10230
出来的	-10231
出来道	-10232
出松林	-10233
到此间	-10234
到灵山	-10235
到空中	-10236
到这里	-10237
千万莫	-10238
半路上	-10239
单丝不	-10240
即起身	-10241
却不曾	-10242
却将那	-10243
去了罢	-10244
又不会	-10245
又不见	-10246
又只见	-10247
双手捧	-10248
发怒道	-10249
变了脸	-10250
变得好	-10251
只怕你	-10252
只是一	-10253
只杀得	-10254
只除是	-10255
叮叮当	-10256
台之上	-10257
吃一个	-10258
吃不了	-10259
吆喝道	-10260
同师父	-10261
后园里	-10262
听他说	-10263
听我道	-10264
告菩萨	-10265
哄得他	-10266
哭啼啼	-10267
唐僧与	-10268
唐僧叫	-10269
唐和尚	-10270
唐师父	-10271
唐御弟	-10272
喘嘘嘘	-10273
喝声叫	-10274
喝退了	-10275
喷彩雾	-10276
四十里	-10277
因甚事	-10278
圈子阵	-10279
在他家	-10280
在头上	-10281
在家人	-10282
在洞里	-10283
在草里	-10284
地灵县	-10285
坐不稳	-10286
埋怨道	-10287
城楼上	-10288
多官道	-10289
大圣啊	-10290
大的个	-10291
天地暗	-10292
天师道	-10293
天弄井	-10294
天门外	-10295
太医院	-10296
太阴君	-10297
奉旨意	-10298
奉玉帝	-10299
套在他	-10300
好宝贝	-10301
好怪物	-10302
如意钩	-10303
如雷道	-10304
妖魔道	-10305
孔雀经	-10306
安排了	-10307
宝贝来	-10308
寻不着	-10309
将一个	-10310
将公主	-10311
将回来	-10312
将进来	-10313
尊罗汉	-10314
小家子	-10315
小道士	-10316
就是我	-10317
帅群妖	-10318
师父去	-10319
师父要	-10320
平顶山	-10321
开口道	-10322
弄不成	-10323
弄精神	-10324
引唐僧	-10325
弟兄们	-10326
当胸道	-10327
往西去	-10328
径到了	-10329
径来到	-10330
快回去	-10331
急纵云	-10332
急起身	-10333
恐一时	-10334
恐师父	-10335
悟净道	-10336
惊讶道	-10337
我们打	-10338
我在此	-10339
我师徒	-10340
我想着	-10341
我的马	-10342
我若不	-10343
我闻得	-10344
我饶你	-10345
打了个	-10346
打死你	-10347
把前门	-10348
把扇子	-10349
把老孙	-10350
把行李	-10351
把那怪	-10352
报信的	-10353
抬轿来	-10354
抹了一	-10355
抹抹脸	-10356
担行李	-10357
拖着钯	-10358
拜佛祖	-10359
拜活佛	-10360
拱手道	-10361
拿不动	-10362
拿他去	-10363
拿来了	-10364
拿过来	-10365
捞了去	-10366
推开门	-10367
提起来	-10368
搀住道	-10369
搭上手	-10370
摆列着	-10371
摇头道	-10372
摩云洞	-10373
放下钯	-10374
放金光	-10375
敌不过	-10376
救了我	-10377
救得你	-10378
救得我	-10379
教我去	-10380
敲着梆	-10381
敲着锣	-10382
方天戟	-10383
方知是	-10384
施变化	-10385
无一个	-10386
无忧履	-10387
无火处	-10388
无踪迹	-10389
早来到	-10390
早见那	-10391
是一座	-10392
是个大	-10393
是怎么	-10394
是我们	-10395
是这般	-10396
月牙铲	-10397
有一张	-10398
有八九	-10399
有力量	-10400
有千百	-10401
有四五	-10402
有此理	-10403
有甚话	-10404
望大圣	-10405
望妖魔	-10406
李长庚	-10407
来我吃	-10408
来此处	-10409
来问我	-10410
正南上	-10411
正当中	-10412
毡包袱	-10413
沙僧又	-10414
沙僧见	-10415
沙滩上	-10416
油锅里	-10417
泼怪物	-10418
活活的	-10419
清华庄	-10420
火尖枪	-10421
灭法国	-10422
点头道	-10423
牵了马	-10424
狮驼洞	-10425
玉帝差	-10426
玻璃盏	-10427
理会得	-10428
琉璃井	-10429
留春亭	-10430
白鹦哥	-10431
的人家	-10432
的什么	-10433
的妖精	-10434
的是我	-10435
的道士	-10436
的长老	-10437
皇帝的	-10438
省悟道	-10439
着几个	-10440
睡不着	-10441
瞌睡虫	-10442
知他是	-10443
石狮子	-10444
砂走石	-10445
破儿洞	-10446
离东土	-10447
笑呵呵	-10448
等我且	-10449
等我再	-10450
算计要	-10451
约有三	-10452
纵云头	-10453
纵筋斗	-10454
给孤独	-10455
老员外	-10456
老大人	-10457
老孙去	-10458
老爷们	-10459
老菩萨	-10460
职正果	-10461
胆大的	-10462
脱下来	-10463
自在在	-10464
至洞口	-10465
舍卫国	-10466
荆棘岭	-10467
草除根	-10468
莫睬他	-10469
菩萨教	-10470
菩萨说	-10471
落尘埃	-10472
虫宾城	-10473
虽不是	-10474
行李担	-10475
行者也	-10476
行者等	-10477
行者说	-10478
行过了	-10479
要与他	-10480
见一座	-10481
见那怪	-10482
解了绳	-10483
解锁法	-10484
解阳山	-10485
讨袈裟	-10486
设香案	-10487
说话哩	-10488
请大圣	-10489
诸天道	-10490
走上来	-10491
走了罢	-10492
走出去	-10493
走动些	-10494
走脱了	-10495
起初时	-10496
趁此时	-10497
踏云光	-10498
躬一躬	-10499
躲离了	-10500
过山去	-10501
还是我	-10502
还有一	-10503
还有个	-10504
还未曾	-10505
这一日	-10506
这几个	-10507
这等样	-10508
进来了	-10509
送出城	-10510
道士说	-10511
遮日月	-10512
避妖楼	-10513
邓沙馅	-10514
那个敢	-10515
那刺史	-10516
那国丈	-10517
那天王	-10518
那婆子	-10519
那家子	-10520
那小仙	-10521
那山上	-10522
那山中	-10523
那木叉	-10524
那樵子	-10525
那老牛	-10526
那长嘴	-10527
那门前	-10528
那黑汉	-10529
都是我	-10530
铁棒道	-10531
铜台府	-10532
错认了	-10533
阵旋风	-10534
陈关保	-10535
隐隐的	-10536
静悄悄	-10537
顾性命	-10538
飞龙杖	-10539
香喷喷	-10540
高峰上	-10541
鬼神愁	-10542
魂飞魄	-10543
黄袍怪	-10544
黑鱼精	-10545
▁不一时	-10546
▁且不说	-10547
▁了一个	-10548
▁人参果	-10549
▁众僧道	-10550
▁兄弟们	-10551
▁原来是	-10552
▁唐三藏	-10553
▁土地道	-10554
▁在那里	-10555
▁好猴王	-10556
▁戒笑道	-10557
▁真个是	-10558
▁等我去	-10559
▁美猴王	-10560
▁老师父	-10561
▁花果山	-10562
▁行者却	-10563
▁这和尚	-10564
▁这正是	-10565
▁那老者	-10566
▁那老魔	-10567
▁高叫道	-10568
一匹白马	-10569
一十八位	-10570
一声响亮	-10571
一把揪住	-10572
一条铁棒	-10573
一行四众	-10574
一部一千	-10575
一闻此言	-10576
三个和尚	-10577
三个大字	-10578
三个女儿	-10579
三个魔头	-10580
三十三天	-10581
三十回合	-10582
三层门里	-10583
三百六十	-10584
三藏合掌	-10585
不分好歹	-10586
不敢答应	-10587
不曾带得	-10588
不知是那	-10589
不要胡说	-10590
不见输赢	-10591
不解其意	-10592
与孙大圣	-10593
东土唐僧	-10594
东方发白	-10595
丢了行李	-10596
两件宝贝	-10597
两扇石门	-10598
乃是一个	-10599
九灵元圣	-10600
九霄空里	-10601
二更时分	-10602
五百余年	-10603
五百阿罗	-10604
什么妖精	-10605
从那里来	-10606
仔细看时	-10607
伏侍唐僧	-10608
伤了你的	-10609
伤了性命	-10610
你且起来	-10611
你这猴头	-10612
保护师父	-10613
倒也有些	-10614
借宿一宵	-10615
借芭蕉扇	-10616
八戒上前	-10617
八戒依言	-10618
八戒慌得	-10619
六个小妖	-10620
六般兵器	-10621
具言前事	-10622
内有一个	-10623
再不敢了	-10624
军民人等	-10625
几个小妖	-10626
凭你怎么	-10627
出来迎接	-10628
刁钻古怪	-10629
劈面相迎	-10630
化些斋吃	-10631
十三年前	-10632
十分利害	-10633
南海菩萨	-10634
却在那里	-10635
原来行者	-10636
又叫一声	-10637
取经之事	-10638
受了多少	-10639
变化多端	-10640
口里哼哼	-10641
只是磕头	-10642
只见行者	-10643
叫他一声	-10644
叮叮当当	-10645
吃吾一棒	-10646
呆呆挣挣	-10647
哄他一哄	-10648
唤雨呼风	-10649
喘嘘嘘的	-10650
喝一声道	-10651
嘴长耳大	-10652
嚷嚷闹闹	-10653
四木禽星	-10654
回头就走	-10655
国王闻言	-10656
在山坡下	-10657
在旁笑道	-10658
在这里也	-10659
在这里哩	-10660
多多拜上	-10661
大唐来的	-10662
天色已晚	-10663
天色晚了	-10664
太宗皇帝	-10665
奔上大路	-10666
如意真仙	-10667
妖怪来了	-10668
定睛观看	-10669
将功折罪	-10670
少吉多凶	-10671
巽地上吸	-10672
广目天王	-10673
当坊土地	-10674
得胜而回	-10675
御弟哥哥	-10676
御弟爷爷	-10677
念那话儿	-10678
忽见一座	-10679
悟能八戒	-10680
悬丝诊脉	-10681
慌慌张张	-10682
戏他一戏	-10683
我兄弟们	-10684
我师父乃	-10685
我这里有	-10686
打个唿哨	-10687
打得粉碎	-10688
扯扯拉拉	-10689
护法诸天	-10690
抬头看时	-10691
拔了一根	-10692
拨转云头	-10693
捏着拳头	-10694
换了衣服	-10695
接在手中	-10696
搠个窟窿	-10697
搭救师父	-10698
收了毫毛	-10699
教光禄寺	-10700
斑斓猛虎	-10701
无影无形	-10702
是个妖邪	-10703
是我师父	-10704
昴日星官	-10705
有一事奉	-10706
有二十里	-10707
有何不可	-10708
有八百里	-10709
朝上礼拜	-10710
本身模样	-10711
朱紫国王	-10712
来了一个	-10713
来的和尚	-10714
松箍儿咒	-10715
极乐世界	-10716
柄芭蕉扇	-10717
毒魔狠怪	-10718
气呼呼的	-10719
气杀我也	-10720
沙僧见了	-10721
泪如泉涌	-10722
洞天福地	-10723
海晏河清	-10724
爬将起来	-10725
爷爷来了	-10726
牛魔王的	-10727
特来启奏	-10728
现出本象	-10729
看是何如	-10730
眼不转睛	-10731
眼泪汪汪	-10732
着实无礼	-10733
知五百年	-10734
称谢不已	-10735
称赞不已	-10736
精神抖擞	-10737
紫金钵盂	-10738
结束整齐	-10739
老孙之意	-10740
胆战心惊	-10741
背在身上	-10742
舍死忘生	-10743
芳草坡前	-10744
落下云头	-10745
虎豹狼虫	-10746
血淋淋的	-10747
行囊马匹	-10748
行者不敢	-10749
行者接了	-10750
被他拿住	-10751
西梁女国	-10752
见事不谐	-10753
见有一座	-10754
认得声音	-10755
话不虚传	-10756
误了大事	-10757
谢之不尽	-10758
败阵而走	-10759
走了风讯	-10760
起在半空	-10761
踢天弄井	-10762
辟寒大王	-10763
还有什么	-10764
还有多少	-10765
这个勾当	-10766
连马五口	-10767
迟了些儿	-10768
递与八戒	-10769
递与师父	-10770
那些女子	-10771
那孙行者	-10772
那怪笑道	-10773
那怪见了	-10774
那里肯放	-10775
都不见了	-10776
金圣娘娘	-10777
金山兜洞	-10778
金蝉长老	-10779
钻将进去	-10780
铁扇公主	-10781
镇元大仙	-10782
长生不老	-10783
门上有一	-10784
阁门大使	-10785
顿首百拜	-10786
饱餐一顿	-10787
马不停蹄	-10788
驾云而去	-10789
魄散魂飞	-10790
鹿力大仙	-10791
黑水河神	-10792
龟鳖鼋鼍	-10793
▁八戒沙僧	-10794
▁行者上前	-10795
▁观音菩萨	-10796
一百个是我	-10797
三合敌得我	-10798
三藏合掌道	-10799
三藏在马上	-10800
不瞒师父说	-10801
东土唐朝差	-10802
乃东土大唐	-10803
你怎么这等	-10804
你那里晓得	-10805
即变做一个	-10806
国王大喜道	-10807
在那半空中	-10808
实不瞒你说	-10809
往西天去的	-10810
往那里去了	-10811
我们出家人	-10812
战战兢兢的	-10813
托塔李天王	-10814
用手搭凉篷	-10815
细说了一遍	-10816
细陈了一遍	-10817
请师父上马	-10818
贫僧问讯了	-10819
躬身施礼道	-10820
那呆子真个	-10821
那长老只得	-10822
齐天大圣孙	-10823
▁却说那八戒	-10824
▁话说孙大圣	-10825
七十二般变化	-10826
东土大唐圣僧	-10827
大徒弟孙悟空	-10828
毛脸雷公嘴的	-10829
袖中取出一个	-10830
走出一个老者	-10831
▁且听下回分解	-10832
▁却说那孙大圣	-10833
你看他怎生模样	-10834
齐天大圣孙悟空	-10835
▁‘	-10836
▁丁	-10837
▁世	-10838
▁书	-10839
▁买	-10840
▁保	-10841
▁元	-10842
▁全	-10843
▁兴	-10844
▁冒	-10845
▁净	-10846
▁刹	-10847
▁劳	-10848
▁北	-10849
▁半	-10850
▁叉	-10851
▁受	-10852
▁句	-10853
▁含	-10854
▁咒	-10855
▁咬	-10856
▁圆	-10857
▁壁	-10858
▁太	-10859
▁夫	-10860
▁失	-10861
▁夺	-10862
▁奇	-10863
▁妻	-10864
▁孤	-10865
▁守	-10866
▁安	-10867
▁宣	-10868
▁害	-10869
▁宴	-10870
▁寒	-10871
▁寿	-10872
▁尖	-10873
▁尾	-10874
▁左	-10875
▁巧	-10876
▁巨	-10877
▁幼	-10878
▁怀	-10879
▁怜	-10880
▁总	-10881
▁恨	-10882
▁愁	-10883
▁感	-10884
▁抛	-10885
▁挂	-10886
▁捏	-10887
▁揪	-10888
▁摆	-10889
▁料	-10890
▁斧	-10891
▁旁	-10892
▁旗	-10893
▁昏	-10894
▁曰	-10895
▁朕	-10896
▁朵	-10897
▁李	-10898
▁枝	-10899
▁梦	-10900
▁武	-10901
▁母	-10902
▁毒	-10903
▁民	-10904
▁泪	-10905
▁洗	-10906
▁洲	-10907
▁活	-10908
▁浪	-10909
▁淡	-10910
▁温	-10911
▁潜	-10912
▁灭	-10913
▁照	-10914
▁牵	-10915
▁狮	-10916
▁画	-10917
▁瞒	-10918
▁离	-10919
▁禽	-10920
▁竟	-10921
▁笼	-10922
▁答	-10923
▁羊	-10924
▁翻	-10925
▁腰	-10926
▁莲	-10927
▁蒙	-10928
▁蓝	-10929
▁衬	-10930
▁裙	-10931
▁裟	-10932
▁认	-10933
▁讯	-10934
▁误	-10935
▁谛	-10936
▁贤	-10937
▁赦	-10938
▁返	-10939
▁退	-10940
▁选	-10941
▁钱	-10942
▁阔	-10943
▁鞋	-10944
▁顾	-10945
▁飘	-10946
▁验	-10947
▁鹿	-10948
一叙	-10949
一叶	-10950
一员	-10951
一小	-10952
一带	-10953
一打	-10954
一掬	-10955
一斋	-10956
一旦	-10957
一林	-10958
一枝	-10959
一灵	-10960
一用	-10961
一盏	-10962
一磨	-10963
一钻	-10964
一闪	-10965
一饭	-10966
七窍	-10967
七级	-10968
七魄	-10969
万劫	-10970
万四	-10971
万壑	-10972
万样	-10973
万法	-10974
丈长	-10975
三匝	-10976
三声	-10977
三夜	-10978
三子	-10979
三宝	-10980
三寸	-10981
三尸	-10982
三岁	-10983
三徒	-10984
三思	-10985
三折	-10986
三条	-10987
三檐	-10988
三番	-10989
三盏	-10990
三魂	-10991
上三	-10992
上元	-10993
上城	-10994
上头	-10995
上边	-10996
上道	-10997
上风	-10998
下土	-10999
下床	-11000
下榻	-11001
不为	-11002
不合	-11003
不备	-11004
不对	-11005
不少	-11006
不数	-11007
不杀	-11008
不歇	-11009
不正	-11010
不活	-11011
不看	-11012
不破	-11013
不自	-11014
不若	-11015
不行	-11016
不达	-11017
不还	-11018
不附	-11019
不饮	-11020
不高	-11021
不齐	-11022
与王	-11023
专为	-11024
且只	-11025
且嫩	-11026
且教	-11027
且来	-11028
且等	-11029
且饶	-11030
丛丛	-11031
东上	-11032
东倒	-11033
东华	-11034
东海	-11035
两全	-11036
两年	-11037
两座	-11038
两廊	-11039
两手	-11040
两样	-11041
两次	-11042
两盏	-11043
两盘	-11044
两耳	-11045
两股	-11046
丧了	-11047
丫髻	-11048
中吃	-11049
丰盛	-11050
丹墀	-11051
丹头	-11052
丹成	-11053
丹的	-11054
丹砂	-11055
丹药	-11056
丹青	-11057
为一	-11058
为两	-11059
为你	-11060
为夫	-11061
为奴	-11062
为照	-11063
为爱	-11064
主也	-11065
主子	-11066
举头	-11067
久别	-11068
久知	-11069
久阔	-11070
之位	-11071
之士	-11072
之奥	-11073
之女	-11074
之徒	-11075
之旁	-11076
之景	-11077
之相	-11078
之种	-11079
之肉	-11080
之贼	-11081
之身	-11082
之金	-11083
乐升	-11084
乘机	-11085
乘此	-11086
乘马	-11087
乘鸾	-11088
九重	-11089
也去	-11090
也当	-11091
也撞	-11092
也能	-11093
习学	-11094
乡村	-11095
乡老	-11096
书信	-11097
书着	-11098
乱动	-11099
乱响	-11100
乱性	-11101
乱摸	-11102
乱砍	-11103
乱道	-11104
了也	-11105
了了	-11106
了人	-11107
了半	-11108
了的	-11109
争奈	-11110
争妍	-11111
事官	-11112
事无	-11113
事毕	-11114
二官	-11115
二日	-11116
亏我	-11117
云去	-11118
云路	-11119
云里	-11120
云霄	-11121
云鬓	-11122
云鬟	-11123
五两	-11124
五寸	-11125
五岳	-11126
五府	-11127
五湖	-11128
井宿	-11129
些些	-11130
亦不	-11131
亭内	-11132
亭台	-11133
亲情	-11134
亲的	-11135
人形	-11136
人讲	-11137
仇隙	-11138
今在	-11139
今生	-11140
今遇	-11141
介士	-11142
从之	-11143
从前	-11144
从来	-11145
他几	-11146
他处	-11147
他意	-11148
他方	-11149
他既	-11150
他自	-11151
他转	-11152
他遂	-11153
仙女	-11154
仙景	-11155
仙石	-11156
令奉	-11157
令尊	-11158
以一	-11159
仪从	-11160
仰望	-11161
任意	-11162
伏怪	-11163
伏望	-11164
休教	-11165
众信	-11166
众将	-11167
众老	-11168
伙了	-11169
伙贼	-11170
会弄	-11171
会说	-11172
传名	-11173
传家	-11174
传留	-11175
伤悲	-11176
伤残	-11177
似那	-11178
似银	-11179
但若	-11180
住宅	-11181
何劳	-11182
何足	-11183
佛事	-11184
佛教	-11185
佛果	-11186
作成	-11187
你个	-11188
你事	-11189
你但	-11190
你带	-11191
你知	-11192
你走	-11193
佳客	-11194
佳节	-11195
使了	-11196
使令	-11197
依你	-11198
依前	-11199
依山	-11200
便有	-11201
便来	-11202
便道	-11203
俏语	-11204
保守	-11205
保得	-11206
信他	-11207
修建	-11208
俱各	-11209
倒不	-11210
倒转	-11211
倒退	-11212
倒马	-11213
倚势	-11214
倚强	-11215
借扇	-11216
借此	-11217
借水	-11218
倾颓	-11219
假名	-11220
假妆	-11221
做媒	-11222
做活	-11223
偷出	-11224
偷去	-11225
偷油	-11226
偷的	-11227
催促	-11228
僧众	-11229
僧是	-11230
僻静	-11231
儿不	-11232
儿奔	-11233
儿孙	-11234
儿打	-11235
儿灞	-11236
充军	-11237
充饥	-11238
先打	-11239
光华	-11240
光景	-11241
光生	-11242
光阴	-11243
入了	-11244
入地	-11245
入城	-11246
入夜	-11247
入山	-11248
入洞	-11249
全生	-11250
八味	-11251
八方	-11252
八角	-11253
六耳	-11254
六贼	-11255
兰麝	-11256
共乐	-11257
兵来	-11258
兵马	-11259
具柬	-11260
养的	-11261
再住	-11262
再多	-11263
再若	-11264
再说	-11265
写个	-11266
冲开	-11267
冷龙	-11268
净土	-11269
净桶	-11270
准缴	-11271
凑吃	-11272
几合	-11273
几文	-11274
几树	-11275
凶丑	-11276
凶气	-11277
凶神	-11278
凶魔	-11279
切须	-11280
初分	-11281
刮倒	-11282
到城	-11283
到官	-11284
到家	-11285
到手	-11286
到老	-11287
削发	-11288
前世	-11289
前程	-11290
前路	-11291
前部	-11292
剔透	-11293
剪径	-11294
割了	-11295
割断	-11296
劈开	-11297
力士	-11298
力气	-11299
力的	-11300
动地	-11301
助你	-11302
助阵	-11303
劫去	-11304
募化	-11305
化缘	-11306
匠作	-11307
匹配	-11308
医树	-11309
十代	-11310
十卷	-11311
千只	-11312
千纪	-11313
升米	-11314
午斋	-11315
午饭	-11316
半步	-11317
华夷	-11318
华宫	-11319
华岳	-11320
卖了	-11321
即把	-11322
即此	-11323
即问	-11324
却便	-11325
却到	-11326
却往	-11327
却转	-11328
却还	-11329
厅中	-11330
厅房	-11331
压帖	-11332
厚恩	-11333
原无	-11334
原由	-11335
厢房	-11336
去吃	-11337
去后	-11338
去查	-11339
去迎	-11340
参差	-11341
又出	-11342
又变	-11343
又向	-11344
又呼	-11345
又命	-11346
又多	-11347
又查	-11348
又经	-11349
又能	-11350
又起	-11351
又重	-11352
双拳	-11353
发愿	-11354
取个	-11355
取大	-11356
取过	-11357
受些	-11358
受他	-11359
受气	-11360
变成	-11361
叙阔	-11362
口出	-11363
口绳	-11364
口舌	-11365
古云	-11366
古道	-11367
句道	-11368
只可	-11369
只将	-11370
只顾	-11371
可也	-11372
可疑	-11373
右舍	-11374
叶儿	-11375
叹息	-11376
吃几	-11377
吃毕	-11378
吃起	-11379
各依	-11380
各家	-11381
各寻	-11382
合同	-11383
合在	-11384
同上	-11385
同看	-11386
同至	-11387
后壁	-11388
向他	-11389
听从	-11390
听令	-11391
吹弹	-11392
吼吼	-11393
和四	-11394
哂笑	-11395
哄那	-11396
响声	-11397
哥耶	-11398
哼的	-11399
哽咽	-11400
唇上	-11401
唤作	-11402
啄木	-11403
喂狗	-11404
喂马	-11405
善言	-11406
喊杀	-11407
喜地	-11408
喜气	-11409
喜笑	-11410
喷出	-11411
嘴道	-11412
噙在	-11413
嚷上	-11414
嚷闹	-11415
嚼碎	-11416
四平	-11417
四拜	-11418
四明	-11419
四渎	-11420
四部	-11421
回缴	-11422
因到	-11423
因果	-11424
团瓢	-11425
园林	-11426
困了	-11427
困住	-11428
困苦	-11429
困陷	-11430
围护	-11431
国界	-11432
圆头	-11433
土神	-11434
圣恩	-11435
在空	-11436
在舍	-11437
在马	-11438
地仙	-11439
地暗	-11440
地狱	-11441
坐性	-11442
坚执	-11443
城去	-11444
城垣	-11445
城来	-11446
堆金	-11447
堤防	-11448
塌地	-11449
塔顶	-11450
增长	-11451
声喊	-11452
处哩	-11453
外合	-11454
外郡	-11455
多亏	-11456
多疑	-11457
多重	-11458
夜半	-11459
夜观	-11460
大不	-11461
大刀	-11462
大千	-11463
大半	-11464
大名	-11465
大害	-11466
大战	-11467
大明	-11468
大柜	-11469
大法	-11470
大白	-11471
大街	-11472
大锅	-11473
大集	-11474
天也	-11475
天人	-11476
天关	-11477
天堂	-11478
天婚	-11479
天机	-11480
天杀	-11481
天然	-11482
天生	-11483
太宰	-11484
太祖	-11485
夭桃	-11486
失失	-11487
失群	-11488
头哩	-11489
头怪	-11490
夷人	-11491
夸口	-11492
夹脑	-11493
奇葩	-11494
奏闻	-11495
奔至	-11496
女们	-11497
奴才	-11498
好么	-11499
好做	-11500
好啊	-11501
好好	-11502
好火	-11503
好行	-11504
好雨	-11505
如冰	-11506
如彼	-11507
如律	-11508
如果	-11509
如花	-11510
如雪	-11511
如风	-11512
如龙	-11513
妃子	-11514
妖孽	-11515
妙人	-11516
妙法	-11517
妙用	-11518
姓沙	-11519
姿娇	-11520
威严	-11521
娇媚	-11522
娇容	-11523
娇态	-11524
娉婷	-11525
娘儿	-11526
嫔后	-11527
子儿	-11528
子难	-11529
孔中	-11530
字街	-11531
存神	-11532
孙大	-11533
孙行	-11534
宁死	-11535
宁耐	-11536
守山	-11537
守护	-11538
安席	-11539
官军	-11540
定住	-11541
宝刹	-11542
宝带	-11543
宝幢	-11544
宝扇	-11545
宝烛	-11546
宝瓶	-11547
宝盖	-11548
宝髻	-11549
客位	-11550
宣他	-11551
宦官	-11552
宫主	-11553
宫门	-11554
宰相	-11555
家人	-11556
家去	-11557
家姓	-11558
容得	-11559
宽住	-11560
寇栋	-11561
寸心	-11562
寸脉	-11563
寻上	-11564
寻下	-11565
寻出	-11566
寻觅	-11567
封为	-11568
将个	-11569
将人	-11570
将假	-11571
小事	-11572
小民	-11573
少有	-11574
尖嘴	-11575
尚未	-11576
就便	-11577
就刺	-11578
就吃	-11579
就地	-11580
就敢	-11581
就的	-11582
就赶	-11583
尴尬	-11584
尺长	-11585
尽他	-11586
尽饱	-11587
展抹	-11588
屡次	-11589
山峰	-11590
山花	-11591
岁岁	-11592
岂可	-11593
峭壁	-11594
州县	-11595
巡视	-11596
左邻	-11597
巧言	-11598
巨灵	-11599
已至	-11600
布散	-11601
布衣	-11602
布雾	-11603
师公	-11604
师恩	-11605
帖子	-11606
帝货	-11607
带上	-11608
带的	-11609
帮功	-11610
帮打	-11611
常见	-11612
干休	-11613
干出	-11614
年头	-11615
年干	-11616
年方	-11617
幸勿	-11618
幸喜	-11619
幸童	-11620
广智	-11621
广谋	-11622
床下	-11623
底儿	-11624
庖丁	-11625
店家	-11626
庵门	-11627
开刀	-11628
弃道	-11629
弄巧	-11630
弄杀	-11631
弄棒	-11632
弄的	-11633
引领	-11634
弥罗	-11635
弯弯	-11636
强徒	-11637
强打	-11638
归一	-11639
归了	-11640
归于	-11641
归依	-11642
归天	-11643
归寝	-11644
归山	-11645
当做	-11646
当当	-11647
当朝	-11648
形似	-11649
彩气	-11650
彩艳	-11651
影神	-11652
待你	-11653
徐徐	-11654
得功	-11655
得起	-11656
得身	-11657
心如	-11658
心心	-11659
心愿	-11660
心来	-11661
心甚	-11662
心疑	-11663
心痒	-11664
心痛	-11665
心的	-11666
心腹	-11667
心诚	-11668
忆念	-11669
忍饿	-11670
忒也	-11671
忒好	-11672
忘恩	-11673
忘情	-11674
忧思	-11675
忧愁	-11676
快了	-11677
快请	-11678
怀恨	-11679
怎似	-11680
怎奈	-11681
怎得	-11682
怎比	-11683
怎见	-11684
怕打	-11685
怜悯	-11686
思想	-11687
急回	-11688
急收	-11689
急跑	-11690
怪人	-11691
怪他	-11692
怪的	-11693
恐伤	-11694
恐唬	-11695
恐怖	-11696
恨恨	-11697
息了	-11698
恶念	-11699
恶星	-11700
恶言	-11701
悄言	-11702
悄语	-11703
患难	-11704
悬挂	-11705
悲声	-11706
惊骇	-11707
惩治	-11708
愈觉	-11709
意合	-11710
愿求	-11711
慈善	-11712
慢走	-11713
成群	-11714
我些	-11715
我便	-11716
我可	-11717
我奉	-11718
我将	-11719
我怎	-11720
我笑	-11721
我被	-11722
我跟	-11723
或变	-11724
战场	-11725
战退	-11726
所管	-11727
才子	-11728
才有	-11729
扑鼻	-11730
打入	-11731
打跌	-11732
打退	-11733
打鼓	-11734
托梦	-11735
扣住	-11736
执杖	-11737
扯开	-11738
扳着	-11739
把口	-11740
把守	-11741
把盏	-11742
把素	-11743
抓住	-11744
抓着	-11745
抖开	-11746
折了	-11747
抛下	-11748
抢了	-11749
护住	-11750
护身	-11751
报答	-11752
披衣	-11753
抬到	-11754
抱头	-11755
拈枪	-11756
拔刀	-11757
拔济	-11758
拚命	-11759
招僧	-11760
招安	-11761
拜伏	-11762
拜接	-11763
拜揖	-11764
拜辞	-11765
拜问	-11766
拥拥	-11767
拥至	-11768
拨开	-11769
拱开	-11770
拴着	-11771
拿那	-11772
挡路	-11773
挨着	-11774
振地	-11775
振耳	-11776
挺着	-11777
捉捉	-11778
捎书	-11779
捕贼	-11780
捻个	-11781
掌上	-11782
掌灯	-11783
排戟	-11784
排班	-11785
掣了	-11786
掣开	-11787
接住	-11788
接杯	-11789
推托	-11790
插在	-11791
插秧	-11792
揪翻	-11793
搀出	-11794
搀起	-11795
搅乱	-11796
搬了	-11797
搬运	-11798
摩顶	-11799
摸他	-11800
撇下	-11801
撑船	-11802
撒在	-11803
撒尿	-11804
撒起	-11805
撞到	-11806
撞破	-11807
撮弄	-11808
擅敢	-11809
擅自	-11810
擎玉	-11811
擒了	-11812
擒你	-11813
擒妖	-11814
攒簇	-11815
支住	-11816
收得	-11817
收风	-11818
改了	-11819
改名	-11820
改换	-11821
放上	-11822
故名	-11823
故有	-11824
救儿	-11825
敕封	-11826
敕旨	-11827
教训	-11828
敛衣	-11829
敢莫	-11830
散闷	-11831
数十	-11832
数珠	-11833
整容	-11834
文华	-11835
斗府	-11836
斗星	-11837
斗柄	-11838
斗篷	-11839
斗草	-11840
斤重	-11841
斩了	-11842
方见	-11843
方趁	-11844
施法	-11845
旗号	-11846
无上	-11847
无俗	-11848
无停	-11849
无子	-11850
无客	-11851
无尘	-11852
无常	-11853
无异	-11854
无敌	-11855
无日	-11856
无虑	-11857
无语	-11858
无雨	-11859
既在	-11860
既无	-11861
既来	-11862
既要	-11863
日出	-11864
日头	-11865
日里	-11866
日间	-11867
早又	-11868
时务	-11869
昆玉	-11870
昆虫	-11871
明亮	-11872
明心	-11873
明霞	-11874
昏了	-11875
昏昏	-11876
昏蒙	-11877
春尽	-11878
春意	-11879
是人	-11880
是无	-11881
是朕	-11882
是真	-11883
是鬼	-11884
显得	-11885
晒经	-11886
普济	-11887
暖寿	-11888
暖气	-11889
曲径	-11890
替祭	-11891
月光	-11892
月华	-11893
月皎	-11894
有书	-11895
有情	-11896
有或	-11897
有日	-11898
有病	-11899
有累	-11900
朕之	-11901
朝地	-11902
朝王	-11903
朝阳	-11904
未为	-11905
未泄	-11906
未知	-11907
未见	-11908
本庄	-11909
本路	-11910
术法	-11911
村野	-11912
杜鹃	-11913
条路	-11914
来与	-11915
来吃	-11916
来缠	-11917
来骗	-11918
松竹	-11919
极当	-11920
极能	-11921
枉死	-11922
枉费	-11923
枪尖	-11924
枪棒	-11925
枪法	-11926
枯槎	-11927
架起	-11928
柄枪	-11929
柜脚	-11930
样者	-11931
核桃	-11932
桃花	-11933
桌席	-11934
桠开	-11935
桥头	-11936
桥边	-11937
桧柏	-11938
梢子	-11939
棒起	-11940
棹船	-11941
椰子	-11942
檀府	-11943
次早	-11944
欢会	-11945
欢天	-11946
欢娱	-11947
欲配	-11948
欺君	-11949
欺天	-11950
款留	-11951
歇了	-11952
歌声	-11953
正南	-11954
正教	-11955
正该	-11956
正都	-11957
正阳	-11958
步步	-11959
死得	-11960
殿内	-11961
殿后	-11962
毛骨	-11963
民安	-11964
民间	-11965
水之	-11966
水了	-11967
水去	-11968
水土	-11969
水灾	-11970
水神	-11971
水能	-11972
水陆	-11973
水鼋	-11974
永住	-11975
永寿	-11976
求救	-11977
汗巾	-11978
江河	-11979
池里	-11980
污秽	-11981
汤着	-11982
汤饭	-11983
汪洋	-11984
沉疴	-11985
没好	-11986
没用	-11987
没福	-11988
河道	-11989
治得	-11990
法来	-11991
法象	-11992
泪下	-11993
泪眼	-11994
泰极	-11995
泼泼	-11996
洗心	-11997
活了	-11998
流出	-11999
浅深	-12000
浴池	-12001
海岳	-12002
海棠	-12003
涤垢	-12004
涧壑	-12005
涧泉	-12006
涧里	-12007
淋漓	-12008
淙淙	-12009
深为	-12010
深林	-12011
深深	-12012
添香	-12013
清气	-12014
清浊	-12015
清雅	-12016
渔舟	-12017
渡人	-12018
渡过	-12019
温柔	-12020
游方	-12021
游鱼	-12022
湿了	-12023
滂沱	-12024
满洞	-12025
满空	-12026
满足	-12027
漏了	-12028
漫山	-12029
潜踪	-12030
澄清	-12031
火中	-12032
火具	-12033
火发	-12034
火或	-12035
火的	-12036
火罩	-12037
火马	-12038
灯下	-12039
灰尘	-12040
灵宝	-12041
灾危	-12042
灾愆	-12043
点札	-12044
点点	-12045
烈焰	-12046
烟光	-12047
烟花	-12048
烦你	-12049
热闹	-12050
焦燥	-12051
焦躁	-12052
然而	-12053
煌煌	-12054
照耀	-12055
熊罴	-12056
熏风	-12057
熟瓜	-12058
熟的	-12059
爬山	-12060
爱贤	-12061
爷娘	-12062
片片	-12063
牙牌	-12064
牛耳	-12065
特造	-12066
独坐	-12067
猎户	-12068
猩猩	-12069
獐鹿	-12070
玄微	-12071
玉带	-12072
玉真	-12073
玉笋	-12074
玉麈	-12075
玳瑁	-12076
珍羞	-12077
班中	-12078
理说	-12079
琥珀	-12080
瑜伽	-12081
瓶子	-12082
甚多	-12083
生根	-12084
生死	-12085
生熟	-12086
生花	-12087
用用	-12088
电掣	-12089
留云	-12090
留些	-12091
留得	-12092
畜类	-12093
番番	-12094
病愈	-12095
痴长	-12096
登基	-12097
登堂	-12098
白的	-12099
白虎	-12100
白银	-12101
百味	-12102
百年	-12103
的个	-12104
的使	-12105
的望	-12106
的笑	-12107
的跳	-12108
的还	-12109
皮开	-12110
盐酱	-12111
盖儿	-12112
盖地	-12113
盖顶	-12114
盘子	-12115
盛宴	-12116
盛斋	-12117
目秀	-12118
相交	-12119
相帮	-12120
相干	-12121
相打	-12122
相爱	-12123
相生	-12124
相请	-12125
省些	-12126
眉清	-12127
看出	-12128
看毕	-12129
真情	-12130
眼目	-12131
着些	-12132
着口	-12133
着火	-12134
着衣	-12135
着门	-12136
睡罢	-12137
瞒我	-12138
石壁	-12139
石床	-12140
砖砌	-12141
破烂	-12142
碎金	-12143
碧空	-12144
社令	-12145
祝罢	-12146
神圣	-12147
神明	-12148
神火	-12149
祥瑞	-12150
祭祀	-12151
禅寺	-12152
禅林	-12153
福寿	-12154
离山	-12155
禽兽	-12156
私房	-12157
秋千	-12158
稀罕	-12159
稳睡	-12160
空地	-12161
空心	-12162
空虚	-12163
立住	-12164
立站	-12165
站住	-12166
站稳	-12167
竭诚	-12168
端肃	-12169
笑倒	-12170
笑得	-12171
笑我	-12172
笔砚	-12173
第七	-12174
第四	-12175
笼在	-12176
等官	-12177
筋节	-12178
筑地	-12179
答曰	-12180
箏鍃	-12181
算帐	-12182
簸箕	-12183
米粮	-12184
米面	-12185
粗夯	-12186
精怪	-12187
精锐	-12188
素手	-12189
索索	-12190
紫府	-12191
紫燕	-12192
累及	-12193
红叶	-12194
红杏	-12195
红绡	-12196
纵放	-12197
纸马	-12198
细软	-12199
终身	-12200
绊脚	-12201
经去	-12202
经文	-12203
经验	-12204
绑了	-12205
结彩	-12206
结的	-12207
绦子	-12208
绰着	-12209
绵花	-12210
绿莎	-12211
缓缓	-12212
缩地	-12213
罩定	-12214
美女	-12215
群臣	-12216
翠盖	-12217
翩翩	-12218
翻成	-12219
耀耀	-12220
老佛	-12221
老公	-12222
老婆	-12223
老少	-12224
老身	-12225
而坐	-12226
而已	-12227
而至	-12228
而过	-12229
耳红	-12230
聆音	-12231
聒聒	-12232
聚集	-12233
肉酱	-12234
肝肠	-12235
肠人	-12236
肠鸣	-12237
股水	-12238
肯放	-12239
胆怯	-12240
胆量	-12241
背马	-12242
胎里	-12243
胜似	-12244
胡柴	-12245
能灭	-12246
脚儿	-12247
脚来	-12248
脚步	-12249
脱却	-12250
脱逃	-12251
腊梅	-12252
腔子	-12253
腿上	-12254
膂力	-12255
自到	-12256
自小	-12257
自当	-12258
自觉	-12259
自那	-12260
至近	-12261
舍命	-12262
舍妹	-12263
船只	-12264
良辰	-12265
花卉	-12266
花帽	-12267
花灯	-12268
花红	-12269
若道	-12270
苦历	-12271
苦斗	-12272
茶房	-12273
草坡	-12274
草寇	-12275
荡魔	-12276
药的	-12277
莫恼	-12278
莫放	-12279
莫来	-12280
莫非	-12281
获得	-12282
落于	-12283
落得	-12284
落水	-12285
葛藤	-12286
蒙蒙	-12287
蒸笼	-12288
蒸酥	-12289
蒺藜	-12290
蓝缕	-12291
蓬蓬	-12292
蔽日	-12293
藏于	-12294
藏经	-12295
藤缠	-12296
虎坐	-12297
虎筋	-12298
虚空	-12299
虫卢	-12300
虫蛭	-12301
虹霓	-12302
虽当	-12303
虾婆	-12304
蛟精	-12305
蟠龙	-12306
血盆	-12307
行程	-12308
行童	-12309
衔花	-12310
街道	-12311
衣领	-12312
衤阑	-12313
袖里	-12314
被贼	-12315
装人	-12316
褪下	-12317
西风	-12318
要了	-12319
要大	-12320
要寻	-12321
要杀	-12322
要用	-12323
见在	-12324
见性	-12325
见毕	-12326
见识	-12327
见责	-12328
见风	-12329
观中	-12330
观玩	-12331
规模	-12332
觅果	-12333
角尖	-12334
解救	-12335
解衣	-12336
言之	-12337
讨个	-12338
讨些	-12339
许愿	-12340
许败	-12341
设朝	-12342
访着	-12343
证见	-12344
诉苦	-12345
试演	-12346
话哩	-12347
该个	-12348
该有	-12349
请师	-12350
请帖	-12351
请谁	-12352
谈诗	-12353
谢谢	-12354
象我	-12355
豹皮	-12356
贤妹	-12357
贤良	-12358
败叶	-12359
败残	-12360
贴了	-12361
贴身	-12362
赌胜	-12363
赏赐	-12364
赐斋	-12365
赢他	-12366
赤铜	-12367
走入	-12368
走去	-12369
走时	-12370
走罢	-12371
走脱	-12372
赶去	-12373
赶战	-12374
赶月	-12375
起些	-12376
起盖	-12377
超度	-12378
越岭	-12379
足感	-12380
跋涉	-12381
跌下	-12382
跑上	-12383
跑了	-12384
跟你	-12385
跪着	-12386
跪道	-12387
路去	-12388
路遥	-12389
路钱	-12390
跳浪	-12391
跳舞	-12392
踌躇	-12393
身闲	-12394
躲在	-12395
车子	-12396
车马	-12397
轮到	-12398
轰轰	-12399
轰雷	-12400
轻了	-12401
辨色	-12402
边的	-12403
迎道	-12404
近他	-12405
近身	-12406
返故	-12407
还似	-12408
还少	-12409
还敢	-12410
还留	-12411
还自	-12412
这事	-12413
这们	-12414
这半	-12415
这方	-12416
这时	-12417
这水	-12418
这河	-12419
这猴	-12420
这路	-12421
这边	-12422
这遭	-12423
进他	-12424
进房	-12425
进斋	-12426
远方	-12427
连我	-12428
迷失	-12429
追寻	-12430
退下	-12431
送在	-12432
递个	-12433
造下	-12434
逢山	-12435
逼法	-12436
遂心	-12437
遂而	-12438
遍了	-12439
遍游	-12440
道号	-12441
道情	-12442
道长	-12443
遥望	-12444
遥远	-12445
遭擒	-12446
邓张	-12447
那东	-12448
那城	-12449
那座	-12450
那有	-12451
那柄	-12452
那泼	-12453
那肯	-12454
那见	-12455
那门	-12456
那风	-12457
那龙	-12458
邪物	-12459
邻叟	-12460
都会	-12461
都化	-12462
都收	-12463
都看	-12464
酒醉	-12465
采猎	-12466
里也	-12467
里外	-12468
重孙	-12469
野草	-12470
金亭	-12471
金公	-12472
金冠	-12473
金厢	-12474
金木	-12475
金海	-12476
金漆	-12477
金缕	-12478
金阙	-12479
金顶	-12480
钟磬	-12481
钟茶	-12482
钦遵	-12483
钯杖	-12484
铁杵	-12485
铁锁	-12486
铜头	-12487
铜锣	-12488
银须	-12489
铺兵	-12490
铺彩	-12491
铺排	-12492
铺盖	-12493
锁了	-12494
锅巴	-12495
锅底	-12496
锦帐	-12497
长久	-12498
长春	-12499
长远	-12500
问得	-12501
问罪	-12502
闯至	-12503
闲食	-12504
闻声	-12505
阆苑	-12506
阎罗	-12507
阴君	-12508
降他	-12509
降邪	-12510
院内	-12511
陪着	-12512
陷害	-12513
随命	-12514
随心	-12515
随朝	-12516
随至	-12517
随行	-12518
隔架	-12519
难寻	-12520
难渡	-12521
难移	-12522
难舍	-12523
难言	-12524
难认	-12525
难鸣	-12526
雕栏	-12527
雕梁	-12528
雨水	-12529
雷闪	-12530
霜雪	-12531
露尾	-12532
青毛	-12533
青草	-12534
青青	-12535
面貌	-12536
鞭来	-12537
顶着	-12538
顶针	-12539
顺手	-12540
顺着	-12541
须在	-12542
顽皮	-12543
领兵	-12544
风儿	-12545
风清	-12546
飕飕	-12547
飘靗	-12548
飘风	-12549
飞云	-12550
飞报	-12551
飞星	-12552
飞空	-12553
飞舞	-12554
食用	-12555
饣舌	-12556
饥馁	-12557
饭店	-12558
饭毕	-12559
首饰	-12560
香獐	-12561
香的	-12562
香积	-12563
香藤	-12564
香飘	-12565
馥馥	-12566
驼罗	-12567
驾前	-12568
驿内	-12569
骁雄	-12570
骤雨	-12571
骨头	-12572
高台	-12573
高吊	-12574
高呼	-12575
高堂	-12576
高寿	-12577
高挂	-12578
高登	-12579
高见	-12580
鬼魂	-12581
鬼魅	-12582
魂灵	-12583
鲜明	-12584
鳞甲	-12585
鸟雀	-12586
鹅黄	-12587
鹦鹉	-12588
黄婆	-12589
黄毛	-12590
黄河	-12591
黑心	-12592
黑暗	-12593
鼓楼	-12594
鼓钹	-12595
齐斗	-12596
齐鸣	-12597
龙兵	-12598
龙吟	-12599
龙头	-12600
龙寺	-12601
▁一体	-12602
▁一口	-12603
▁一夜	-12604
▁一定	-12605
▁一纵	-12606
▁万里	-12607
▁三清	-12608
▁上界	-12609
▁下降	-12610
▁不当	-12611
▁不来	-12612
▁不离	-12613
▁两条	-12614
▁个个	-12615
▁中间	-12616
▁之间	-12617
▁了个	-12618
▁了道	-12619
▁交战	-12620
▁住道	-12621
▁佛祖	-12622
▁你去	-12623
▁你可	-12624
▁使个	-12625
▁修成	-12626
▁出门	-12627
▁化斋	-12628
▁却就	-12629
▁又被	-12630
▁又要	-12631
▁变化	-12632
▁口中	-12633
▁叫做	-12634
▁可曾	-12635
▁告道	-12636
▁响亮	-12637
▁坐在	-12638
▁壁厢	-12639
▁外道	-12640
▁天门	-12641
▁奏道	-12642
▁女王	-12643
▁奶奶	-12644
▁婴儿	-12645
▁定是	-12646
▁就有	-12647
▁就要	-12648
▁层层	-12649
▁山中	-12650
▁师徒	-12651
▁彀了	-12652
▁当初	-12653
▁当日	-12654
▁往来	-12655
▁径至	-12656
▁待我	-12657
▁得我	-12658
▁必是	-12659
▁怪道	-12660
▁手段	-12661
▁报道	-12662
▁拿住	-12663
▁揭谛	-12664
▁既是	-12665
▁旨意	-12666
▁明日	-12667
▁昨日	-12668
▁是一	-12669
▁更无	-12670
▁木母	-12671
▁本事	-12672
▁来也	-12673
▁来了	-12674
▁楼下	-12675
▁模样	-12676
▁樵子	-12677
▁欢喜	-12678
▁正在	-12679
▁此去	-12680
▁死了	-12681
▁毕竟	-12682
▁满天	-12683
▁猴头	-12684
▁玉帝	-12685
▁石崖	-12686
▁空中	-12687
▁第十	-12688
▁等说	-12689
▁老者	-12690
▁自小	-12691
▁衣服	-12692
▁见他	-12693
▁解下	-12694
▁让他	-12695
▁起来	-12696
▁足下	-12697
▁跳将	-12698
▁身上	-12699
▁身披	-12700
▁身穿	-12701
▁迎着	-12702
▁近前	-12703
▁道人	-12704
▁金箍	-12705
▁钉钯	-12706
▁门外	-12707
▁随后	-12708
▁面前	-12709
▁驿丞	-12710
▁高山	-12711
▁黄婆	-12712
一个使	-12713
一定要	-12714
一家人	-12715
一家子	-12716
一层门	-12717
一步一	-12718
一行人	-12719
一袖子	-12720
一阵风	-12721
七十里	-12722
七弟兄	-12723
万水兵	-12724
三徒弟	-12725
三朝未	-12726
三王子	-12727
三百余	-12728
三驸马	-12729
三魔道	-12730
上九霄	-12731
上天堂	-12732
上天宫	-12733
上有人	-12734
上有六	-12735
上来道	-12736
上溜头	-12737
下战书	-12738
下海去	-12739
下肚去	-12740
下雨哩	-12741
下马道	-12742
不中用	-12743
不住脚	-12744
不多儿	-12745
不成了	-12746
不是那	-12747
不曾有	-12748
不济事	-12749
不禁打	-12750
不答应	-12751
不许胜	-12752
不通变	-12753
与世同	-12754
与他些	-12755
与他去	-12756
与他同	-12757
与你去	-12758
与你吃	-12759
与你罢	-12760
与多官	-12761
与大王	-12762
与师兄	-12763
与师弟	-12764
与我收	-12765
与我的	-12766
与我说	-12767
且行且	-12768
东倒西	-12769
东北上	-12770
东张西	-12771
丢一个	-12772
丢倒头	-12773
两个人	-12774
个干净	-12775
个手平	-12776
临凡世	-12777
临行时	-12778
为灰烬	-12779
之于地	-12780
乌斯藏	-12781
乐升平	-12782
九个头	-12783
九十六	-12784
也不会	-12785
也不动	-12786
也不消	-12787
也不该	-12788
也容易	-12789
也将就	-12790
乱跳道	-12791
了一半	-12792
了七八	-12793
了你的	-12794
二星官	-12795
二来是	-12796
二王子	-12797
二老道	-12798
于洞内	-12799
云童子	-12800
亮灼灼	-12801
人都是	-12802
从小儿	-12803
从里边	-12804
他一听	-12805
他一程	-12806
他丈母	-12807
他与我	-12808
他听见	-12809
他就是	-12810
他昨日	-12811
他是我	-12812
他有些	-12813
他自家	-12814
他若不	-12815
他说是	-12816
令奉敕	-12817
令牌响	-12818
以相貌	-12819
件衣服	-12820
众人道	-12821
众女子	-12822
优婆夷	-12823
伤他命	-12824
伯钦道	-12825
似前番	-12826
住他的	-12827
作一个	-12828
作喜道	-12829
作念道	-12830
作怒道	-12831
你上前	-12832
你下去	-12833
你与他	-12834
你也忒	-12835
你们且	-12836
你又来	-12837
你可知	-12838
你在此	-12839
你外公	-12840
你当年	-12841
你怎敢	-12842
你既有	-12843
你有何	-12844
你看看	-12845
你莫怪	-12846
你要吃	-12847
你还做	-12848
你面前	-12849
使一根	-12850
使不得	-12851
便怎么	-12852
便怎的	-12853
保护你	-12854
倒换了	-12855
假若不	-12856
做不得	-12857
做徒弟	-12858
偷了他	-12859
偷了我	-12860
偷宝贝	-12861
兄弟啊	-12862
先吃了	-12863
兜住马	-12864
兜率宫	-12865
入深山	-12866
八金刚	-12867
兵器来	-12868
养精神	-12869
再拜道	-12870
决不肯	-12871
出去罢	-12872
出我们	-12873
出来罢	-12874
分明是	-12875
别处去	-12876
到他那	-12877
到此方	-12878
到跟前	-12879
到里边	-12880
剃头刀	-12881
功曹道	-12882
包袱里	-12883
化些斋	-12884
半分毫	-12885
半开半	-12886
即使个	-12887
即抽身	-12888
即转身	-12889
却不会	-12890
却不见	-12891
却也是	-12892
却来此	-12893
却都是	-12894
卷帘将	-12895
压龙山	-12896
原是我	-12897
厮杀哩	-12898
去那里	-12899
又不能	-12900
又叫道	-12901
又没个	-12902
又见有	-12903
双手举	-12904
发狠道	-12905
取不得	-12906
取兵器	-12907
受不得	-12908
受罪哩	-12909
古书云	-12910
只听见	-12911
只在此	-12912
只怕是	-12913
叫做个	-12914
可有个	-12915
可韩司	-12916
吃了些	-12917
吃了斋	-12918
吃了这	-12919
吃我一	-12920
各吃了	-12921
同三藏	-12922
同八戒	-12923
后有一	-12924
后门里	-12925
向何方	-12926
向阳处	-12927
听得他	-12928
呆子又	-12929
和你去	-12930
哪吒道	-12931
哭丧棒	-12932
唐僧乃	-12933
唐僧又	-12934
唐僧在	-12935
唐圣僧	-12936
唬倒了	-12937
唬得他	-12938
嗟叹道	-12939
四个字	-12940
四五个	-12941
四十九	-12942
四十五	-12943
四十卷	-12944
四明铲	-12945
回去了	-12946
回礼道	-12947
囫囵吞	-12948
国丈道	-12949
国王又	-12950
国王遂	-12951
土而入	-12952
在一边	-12953
在家里	-12954
在底下	-12955
在我家	-12956
在树上	-12957
在此等	-12958
在门旁	-12959
地里鬼	-12960
坏了我	-12961
坐在那	-12962
处处通	-12963
外面有	-12964
大些儿	-12965
大圣至	-12966
大大小	-12967
大将军	-12968
大年纪	-12969
大法力	-12970
大王也	-12971
大王子	-12972
大王的	-12973
大闹天	-12974
天君道	-12975
天尊道	-12976
太乙金	-12977
太师道	-12978
太监道	-12979
失失的	-12980
夹生儿	-12981
奉上道	-12982
奉佛旨	-12983
奏玉帝	-12984
女袅娜	-12985
如今又	-12986
如何又	-12987
如何就	-12988
如此说	-12989
妇人来	-12990
字咒语	-12991
字真言	-12992
孤拐来	-12993
宝莲台	-12994
实可夸	-12995
宫皇后	-12996
家师的	-12997
宿一宵	-12998
寡妇道	-12999
对国王	-13000
对师父	-13001
对长老	-13002
将他那	-13003
将我们	-13004
将计就	-13005
将过来	-13006
小妖急	-13007
小子城	-13008
小孩儿	-13009
小孩子	-13010
小西天	-13011
小雷音	-13012
少顷间	-13013
就到了	-13014
就把他	-13015
就是那	-13016
就有三	-13017
尽是些	-13018
尽都是	-13019
居于此	-13020
山中有	-13021
左右是	-13022
左右有	-13023
左遮右	-13024
差鬼使	-13025
师父哩	-13026
师父请	-13027
庆钉钯	-13028
延千纪	-13029
开言道	-13030
引八戒	-13031
引师父	-13032
弥罗宫	-13033
当殿官	-13034
当真的	-13035
彤华宫	-13036
往何处	-13037
待明早	-13038
得他住	-13039
得性命	-13040
得甚紧	-13041
得稀烂	-13042
得走了	-13043
得道的	-13044
心拜佛	-13045
心痒难	-13046
忍不得	-13047
快出来	-13048
念咒语	-13049
忽然见	-13050
怎么反	-13051
怎知道	-13052
急掣棒	-13053
总兵官	-13054
恕弟子	-13055
恶人善	-13056
惟行者	-13057
成亲哩	-13058
我也是	-13059
我也曾	-13060
我们寻	-13061
我儿子	-13062
我当先	-13063
我教他	-13064
我有个	-13065
我来也	-13066
我父子	-13067
我看看	-13068
我等俱	-13069
我老汉	-13070
我舍下	-13071
我见他	-13072
我送你	-13073
战战兢	-13074
扇息火	-13075
手下人	-13076
打一个	-13077
打两个	-13078
打死他	-13079
扭扭捏	-13080
扯了去	-13081
扯着脚	-13082
把三个	-13083
把公主	-13084
把呆子	-13085
把大圣	-13086
把我那	-13087
把沙僧	-13088
把那个	-13089
把门的	-13090
抬轿的	-13091
抱住道	-13092
招呼道	-13093
拴了马	-13094
拿不得	-13095
拿他来	-13096
按一按	-13097
捉弄他	-13098
捣药杵	-13099
捻一把	-13100
掣宝杖	-13101
揩了眼	-13102
搭包子	-13103
摄了去	-13104
摄去了	-13105
摇得响	-13106
摇手道	-13107
摇身一	-13108
摸一摸	-13109
收了棒	-13110
放了他	-13111
救命索	-13112
教师父	-13113
教我驮	-13114
敢这等	-13115
整束了	-13116
文武官	-13117
施主家	-13118
施威武	-13119
施威猛	-13120
无人烟	-13121
无人迹	-13122
无底洞	-13123
无父母	-13124
无量法	-13125
既是他	-13126
早是我	-13127
昆仑山	-13128
明日就	-13129
昭阳宫	-13130
是谁人	-13131
是那位	-13132
显什么	-13133
晒干了	-13134
普陀山	-13135
有一万	-13136
有一块	-13137
有三更	-13138
有人家	-13139
有八百	-13140
有几多	-13141
有四百	-13142
有妖精	-13143
有妖魔	-13144
有我哩	-13145
望爷爷	-13146
望陛下	-13147
木叉道	-13148
本行经	-13149
杀得那	-13150
来与我	-13151
来得甚	-13152
来我听	-13153
来西域	-13154
极乐之	-13155
果见那	-13156
柳林坡	-13157
树推倒	-13158
横担着	-13159
歇了担	-13160
止住道	-13161
正在那	-13162
正行间	-13163
正都在	-13164
此乃是	-13165
此处乃	-13166
毂辘的	-13167
比丘王	-13168
气呼呼	-13169
气昂昂	-13170
水底下	-13171
水面上	-13172
求经者	-13173
沙僧与	-13174
沙僧听	-13175
沙兄弟	-13176
没处买	-13177
波儿奔	-13178
泼孽畜	-13179
泼猴头	-13180
洞中有	-13181
流泪眼	-13182
流泪道	-13183
浑身上	-13184
浑身是	-13185
浮屠塔	-13186
混铁棍	-13187
渐渐的	-13188
火执杖	-13189
点点头	-13190
照顾我	-13191
父母在	-13192
牌楼下	-13193
犯天条	-13194
狮子精	-13195
猪刚鬣	-13196
猪祖宗	-13197
玉真观	-13198
王子道	-13199
琵琶洞	-13200
甚名字	-13201
白龙马	-13202
的东西	-13203
的勾当	-13204
的呆子	-13205
的圣僧	-13206
的性命	-13207
的是个	-13208
的是谁	-13209
的毫毛	-13210
的筵席	-13211
的都是	-13212
直直的	-13213
相迎道	-13214
看不见	-13215
看得过	-13216
看见那	-13217
看起来	-13218
真经者	-13219
眼巴巴	-13220
着一双	-13221
着一块	-13222
着些儿	-13223
睡觉去	-13224
石崖上	-13225
祸来了	-13226
福星道	-13227
福陵山	-13228
离恨天	-13229
稀柿蘙	-13230
穿一件	-13231
站在那	-13232
童儿道	-13233
童子道	-13234
笑唏唏	-13235
符使者	-13236
第一个	-13237
等不得	-13238
等我们	-13239
简帖儿	-13240
管天河	-13241
米三升	-13242
紧箍咒	-13243
约有十	-13244
绣花针	-13245
罗汉道	-13246
羊脂玉	-13247
老剥皮	-13248
老婆婆	-13249
老孙却	-13250
老母道	-13251
老爷是	-13252
老魔头	-13253
老龙道	-13254
而来也	-13255
耍子儿	-13256
脱了皂	-13257
若到那	-13258
若大若	-13259
莫乱谈	-13260
莫多话	-13261
莫胡谈	-13262
菩萨叫	-13263
虎先锋	-13264
虎力道	-13265
虎口洞	-13266
蝎子精	-13267
蟠桃会	-13268
蟠桃宴	-13269
行者去	-13270
行者问	-13271
行者随	-13272
街上人	-13273
袈裟来	-13274
被大圣	-13275
被老君	-13276
装人的	-13277
要与我	-13278
要他驮	-13279
见了我	-13280
见国王	-13281
见沙僧	-13282
见那些	-13283
见长老	-13284
见面钱	-13285
计其数	-13286
让我们	-13287
让老猪	-13288
许旌阳	-13289
说一声	-13290
说与他	-13291
说唐僧	-13292
说大话	-13293
说的话	-13294
请国王	-13295
请驸马	-13296
象这等	-13297
走不脱	-13298
走进去	-13299
起一个	-13300
跌了个	-13301
跟着我	-13302
跳上岸	-13303
跳起去	-13304
蹲在那	-13305
车迟国	-13306
转三转	-13307
轮开手	-13308
软柄枪	-13309
输与他	-13310
辛苦了	-13311
辟火罩	-13312
过路的	-13313
近前来	-13314
还不彀	-13315
还不知	-13316
还是个	-13317
还有那	-13318
这两年	-13319
这两日	-13320
这个道	-13321
这会子	-13322
这几日	-13323
这去处	-13324
这句话	-13325
这唐僧	-13326
这就是	-13327
这山中	-13328
这座山	-13329
这是个	-13330
这条路	-13331
这猢狲	-13332
这皇帝	-13333
这老儿	-13334
这般个	-13335
这般大	-13336
这菩萨	-13337
这袈裟	-13338
送你罢	-13339
送出去	-13340
送老爷	-13341
逞英雄	-13342
造七级	-13343
逢对手	-13344
遍寒暑	-13345
避水诀	-13346
避火诀	-13347
那三位	-13348
那不是	-13349
那什么	-13350
那伙贼	-13351
那公公	-13352
那孽畜	-13353
那小怪	-13354
那条龙	-13355
那来的	-13356
那洞主	-13357
那猢狲	-13358
那老妪	-13359
那老母	-13360
那陈清	-13361
那驸马	-13362
郎君啊	-13363
都出来	-13364
都在此	-13365
都有些	-13366
里之遥	-13367
金刚经	-13368
金角道	-13369
钉在他	-13370
钉在那	-13371
钯扫帚	-13372
钻出来	-13373
银角道	-13374
锦香亭	-13375
长老又	-13376
长老的	-13377
闻得说	-13378
阴司里	-13379
陛下说	-13380
陷空山	-13381
随行者	-13382
雄尊者	-13383
领唐僧	-13384
风发了	-13385
饶他罢	-13386
驾筋斗	-13387
骂了我	-13388
高太公	-13389
高才道	-13390
魂不附	-13391
鹰愁涧	-13392
黄狮精	-13393
黄风岭	-13394
黑风洞	-13395
鼻子卷	-13396
鼻孔里	-13397
齐天圣	-13398
▁一个是	-13399
▁不好了	-13400
▁不知是	-13401
▁与沙僧	-13402
▁了师父	-13403
▁他三个	-13404
▁他三人	-13405
▁似这般	-13406
▁但只是	-13407
▁但见那	-13408
▁出一个	-13409
▁去看看	-13410
▁在空中	-13411
▁在马上	-13412
▁小和尚	-13413
▁忍不住	-13414
▁忽听得	-13415
▁怎么不	-13416
▁拂云叟	-13417
▁是这般	-13418
▁杨柳枝	-13419
▁正是那	-13420
▁正讲处	-13421
▁没奈何	-13422
▁等老孙	-13423
▁者笑道	-13424
▁者闻言	-13425
▁行者才	-13426
▁被行者	-13427
▁见八戒	-13428
▁说什么	-13429
▁这一个	-13430
▁这一去	-13431
▁这一场	-13432
▁这长老	-13433
▁通广大	-13434
▁那一个	-13435
▁那皇帝	-13436
▁那童子	-13437
▁那老妖	-13438
▁那道人	-13439
一个什么	-13440
一个唤做	-13441
一口吞之	-13442
一家一个	-13443
一把挝住	-13444
一日为师	-13445
一根变作	-13446
一直前来	-13447
一阵旋风	-13448
一齐呐喊	-13449
万圣龙王	-13450
万水千山	-13451
万籁无声	-13452
丈二长短	-13453
三个妖王	-13454
三件宝贝	-13455
三位高徒	-13456
三千年一	-13457
三头六臂	-13458
三藏依言	-13459
三藏听见	-13460
三藏喝道	-13461
三藏欣然	-13462
三藏点头	-13463
三藏笑道	-13464
上了大路	-13465
下水去了	-13466
不干我事	-13467
不敢久留	-13468
不敢擅入	-13469
不是妖精	-13470
不曾看见	-13471
不消讲了	-13472
不生不灭	-13473
不知去向	-13474
不知怎么	-13475
不知我的	-13476
不知那个	-13477
不管怎的	-13478
不要无礼	-13479
不要这等	-13480
不识好歹	-13481
不须烦恼	-13482
与猪八戒	-13483
且休烦恼	-13484
且听下回	-13485
丢个眼色	-13486
丢开解数	-13487
两个和尚	-13488
两个孩儿	-13489
两个魔头	-13490
中华大国	-13491
举着钉钯	-13492
乃是一座	-13493
乃是一条	-13494
九头驸马	-13495
也不认得	-13496
也只如此	-13497
也罢也罢	-13498
了这许多	-13499
二层门里	-13500
云来雾去	-13501
五龙二将	-13502
今日天晚	-13503
仔细再看	-13504
他两个在	-13505
他忍不住	-13506
他是妖精	-13507
伏侍师父	-13508
伤他性命	-13509
何不早说	-13510
你不晓得	-13511
你不曾见	-13512
你不认得	-13513
你与沙僧	-13514
你且放心	-13515
你去那里	-13516
你是不知	-13517
你是何人	-13518
你是那方	-13519
你这泼物	-13520
使个神通	-13521
使金箍棒	-13522
侍立左右	-13523
便也罢了	-13524
信不信的	-13525
俯伏在地	-13526
倒换文牒	-13527
倒树摧林	-13528
做了和尚	-13529
元始天尊	-13530
元阳未泄	-13531
八万水兵	-13532
八戒骂道	-13533
六耳猕猴	-13534
再也不敢	-13535
分开水道	-13536
列位老爷	-13537
别了师父	-13538
剖腹剜心	-13539
劈手相迎	-13540
力软筋麻	-13541
十万八千	-13542
十分险峻	-13543
单丝不线	-13544
即变做个	-13545
却不是个	-13546
却如之何	-13547
却才欢喜	-13548
却是一个	-13549
原来八戒	-13550
原来是你	-13551
原来是那	-13552
去了就来	-13553
去得远了	-13554
去救师父	-13555
又不知是	-13556
又只见那	-13557
又见一座	-13558
双手举钯	-13559
反为不美	-13560
变作一把	-13561
变作你的	-13562
叙了坐次	-13563
口中吐出	-13564
口儿朝地	-13565
口里骂道	-13566
只听得那	-13567
只得依从	-13568
只有两个	-13569
只见八戒	-13570
只见那怪	-13571
叫小的们	-13572
吃了一惊	-13573
各归寝处	-13574
吊下泪来	-13575
吊在梁上	-13576
向蒙菩萨	-13577
吩咐八戒	-13578
听他一听	-13579
听得明白	-13580
听得此言	-13581
听得这般	-13582
呀的一声	-13583
咬牙切齿	-13584
唐僧头上	-13585
唐僧是个	-13586
唐僧有难	-13587
唐僧的肉	-13588
唐朝御弟	-13589
唐朝来的	-13590
唐王御弟	-13591
唧唧哝哝	-13592
唬杀我也	-13593
喷云嗳雾	-13594
嚼得粉碎	-13595
四个大字	-13596
四十八卷	-13597
四大天师	-13598
国王大喜	-13599
国王见了	-13600
国王闻说	-13601
土地山神	-13602
土地阴兵	-13603
圣宫娘娘	-13604
在水底下	-13605
坐着一个	-13606
城里城外	-13607
声如霹雳	-13608
多少是好	-13609
大仙笑道	-13610
大圣何往	-13611
大小妖精	-13612
大开东阁	-13613
大排筵宴	-13614
天开地辟	-13615
天竺国界	-13616
夺了他的	-13617
奏闻玉帝	-13618
奔波儿灞	-13619
好个去处	-13620
如何这等	-13621
如来吩咐	-13622
孙行者在	-13623
孙行者的	-13624
孤掌难鸣	-13625
安排斋供	-13626
安排筵宴	-13627
安排茶饭	-13628
官员人等	-13629
宫娥彩女	-13630
寇员外家	-13631
寺里和尚	-13632
将我师父	-13633
小和尚儿	-13634
小钻风道	-13635
就是死了	-13636
尽情打死	-13637
尽皆打死	-13638
山南坡下	-13639
岂有此理	-13640
巧语花言	-13641
差鬼使押	-13642
布雾郎君	-13643
师父不济	-13644
师父来也	-13645
师父莫怪	-13646
带了宝贝	-13647
带在腰间	-13648
底儿朝天	-13649
庞刘苟毕	-13650
弄个手段	-13651
引他出来	-13652
弟兄三个	-13653
往外就走	-13654
往那里走	-13655
待老孙去	-13656
御弟圣僧	-13657
心中暗道	-13658
心爱之物	-13659
忽失声道	-13660
怎么不见	-13661
怎生奈何	-13662
急急如律	-13663
惊天动地	-13664
我与沙僧	-13665
我们且去	-13666
我保唐僧	-13667
我师父来	-13668
我把你这	-13669
我等在此	-13670
我认得他	-13671
我这一去	-13672
我那师父	-13673
战经二十	-13674
所以不曾	-13675
扎了一下	-13676
打死一个	-13677
托着钵盂	-13678
扣背马匹	-13679
扭扭捏捏	-13680
把腰一躬	-13681
抖擞神威	-13682
抬起头来	-13683
拿来我看	-13684
持斋把素	-13685
挑着行囊	-13686
挣挫不得	-13687
换斗移星	-13688
捧在手中	-13689
掣出棒来	-13690
控背躬身	-13691
提着一个	-13692
揣在怀里	-13693
搅海翻江	-13694
摆上斋来	-13695
摆开阵势	-13696
摇旗擂鼓	-13697
摸了一摸	-13698
撞入洞里	-13699
撞见一个	-13700
收了家火	-13701
救人一命	-13702
救我一命	-13703
教沙和尚	-13704
敢在此间	-13705
无一人不	-13706
无影无踪	-13707
日月星辰	-13708
是孙大圣	-13709
是孙悟空	-13710
是家师的	-13711
是怎的说	-13712
是我拿了	-13713
是牛魔王	-13714
是甚宝贝	-13715
是那山里	-13716
晓得些儿	-13717
晦气色脸	-13718
更无一人	-13719
月里嫦娥	-13720
有七八百	-13721
有个什么	-13722
有事要见	-13723
有何事干	-13724
有十万八	-13725
有四万七	-13726
有甚祸事	-13727
有这般事	-13728
望空礼拜	-13729
朝门之外	-13730
李天王道	-13731
村舍人家	-13732
来与我们	-13733
来来往往	-13734
楼台殿阁	-13735
欢天喜地	-13736
此时长老	-13737
此间不是	-13738
比不得那	-13739
毛脸和尚	-13740
水帘洞里	-13741
水德星君	-13742
沉吟半晌	-13743
沙僧挑担	-13744
沙僧近前	-13745
没了头发	-13746
洞门紧闭	-13747
活命之恩	-13748
海角天涯	-13749
混沌初分	-13750
渺渺茫茫	-13751
灵感大王	-13752
灵霄殿下	-13753
爬起来道	-13754
牌位香炉	-13755
狂风滚滚	-13756
猪八戒道	-13757
玲珑剔透	-13758
用手一指	-13759
用手指定	-13760
白衣秀士	-13761
相貌丑陋	-13762
相随左右	-13763
看守行李	-13764
睡在地下	-13765
祥云缥缈	-13766
称谢不尽	-13767
等我再去	-13768
等我替你	-13769
算来只为	-13770
紫竹林中	-13771
纵起祥光	-13772
终身为父	-13773
结为兄弟	-13774
绣墩上坐	-13775
羊力大仙	-13776
翻波跳浪	-13777
老孙去也	-13778
老孙来了	-13779
老王父子	-13780
耳红面赤	-13781
自自在在	-13782
至宝莲台	-13783
若是这等	-13784
莫想得动	-13785
虎皮裙子	-13786
蟭鑙虫儿	-13787
行者却将	-13788
行者又道	-13789
行者大喜	-13790
行者将那	-13791
行者抬头	-13792
行者指道	-13793
行者转身	-13794
行者问道	-13795
行者闻得	-13796
装在里面	-13797
西天路上	-13798
西洋大海	-13799
见了唐僧	-13800
见他两个	-13801
见佛求经	-13802
见我师父	-13803
觌面相迎	-13804
解了八戒	-13805
认了真实	-13806
说不尽那	-13807
请老大王	-13808
请里面坐	-13809
调开桌椅	-13810
败下阵来	-13811
走兽飞禽	-13812
走路的人	-13813
跃浪翻波	-13814
跌跌爬爬	-13815
跟随左右	-13816
路过宝方	-13817
跳上高峰	-13818
轮枪舞剑	-13819
轻轻的飞	-13820
还在那里	-13821
还我马来	-13822
还是我们	-13823
这般一个	-13824
这般无礼	-13825
远来之僧	-13826
送他一个	-13827
递与三藏	-13828
造化低了	-13829
道人笑道	-13830
道士笑道	-13831
那个和尚	-13832
那取经人	-13833
那呆子不	-13834
那呆子才	-13835
那呆子道	-13836
那和尚道	-13837
那女子道	-13838
那妖精的	-13839
那闹天宫	-13840
都在那里	-13841
都来迎接	-13842
金亭馆驿	-13843
金毛狮子	-13844
金箍棒起	-13845
金身罗汉	-13846
金銮宝殿	-13847
锦布直裰	-13848
闪在旁边	-13849
闹天宫时	-13850
降了妖怪	-13851
降了妖精	-13852
降妖缚怪	-13853
雨顺风调	-13854
预修亡斋	-13855
飞将出去	-13856
香烟馥郁	-13857
马匹行李	-13858
骨都都的	-13859
高声叫道	-13860
▁东土大唐	-13861
▁八戒上前	-13862
▁六丁六甲	-13863
▁嘤的一声	-13864
▁摇身一变	-13865
▁现出本相	-13866
▁那孙大圣	-13867
▁那里来的	-13868
三藏勒马道	-13869
上前施礼道	-13870
与五方揭谛	-13871
从那里来的	-13872
你是个什么	-13873
你说那里话	-13874
你那里知道	-13875
倒身下拜道	-13876
八戒又笑道	-13877
八角琉璃井	-13878
冒冒失失的	-13879
出一个头来	-13880
半云半雾的	-13881
却怎生是好	-13882
原来是一个	-13883
叫做孙行者	-13884
可怜就打得	-13885
吩咐沙僧道	-13886
唐僧在马上	-13887
唐僧的徒弟	-13888
在马上遥观	-13889
埋怨行者道	-13890
如意金箍棒	-13891
应声高叫道	-13892
弟子陈玄奘	-13893
往西天拜佛	-13894
微微冷笑道	-13895
我且不打你	-13896
放声大哭道	-13897
是那方来的	-13898
有多少路程	-13899
李天王父子	-13900
神僧孙长老	-13901
第二个徒弟	-13902
给孤布金寺	-13903
给孤独长者	-13904
行者听见道	-13905
行者忍不住	-13906
行者暗想道	-13907
行者闻言道	-13908
许败不许胜	-13909
路阻火焰山	-13910
那两个和尚	-13911
那长嘴和尚	-13912
长嘴大耳的	-13913
馕糠的夯货	-13914
▁却说唐长老	-13915
▁却说孙行者	-13916
▁却说那大圣	-13917
一百一十一个	-13918
东土大唐来的	-13919
东土寻取经人	-13920
只听得半空中	-13921
忽见一座高山	-13922
碗子山波月洞	-13923
过去未来之事	-13924
▁行者闻得此言	-13925
东胜神洲傲来国	-13926
只听得呼呼风响	-13927
天竺国大雷音寺	-13928
差往西天取经者	-13929
急急如律令奉敕	-13930
有人吃他一块肉	-13931
雷音寺拜佛求经	-13932
上西天拜佛求经者	-13933
毛脸雷公嘴的和尚	-13934
太上老君急急如律令奉敕	-13935
:”	-13936
?“	-13937
”、	-13938
▁丑	-13939
▁业	-13940
▁乐	-13941
▁乖	-13942
▁亭	-13943
▁仅	-13944
▁仍	-13945
▁伙	-13946
▁伤	-13947
▁体	-13948
▁余	-13949
▁侍	-13950
▁倘	-13951
▁偏	-13952
▁兜	-13953
▁关	-13954
▁其	-13955
▁兽	-13956
▁写	-13957
▁冠	-13958
▁列	-13959
▁初	-13960
▁剑	-13961
▁匠	-13962
▁匹	-13963
▁医	-13964
▁卒	-13965
▁占	-13966
▁原	-13967
▁及	-13968
▁台	-13969
▁叶	-13970
▁司	-13971
▁吊	-13972
▁吟	-13973
▁呵	-13974
▁品	-13975
▁园	-13976
▁围	-13977
▁堂	-13978
▁堪	-13979
▁夏	-13980
▁始	-13981
▁婢	-13982
▁孔	-13983
▁尊	-13984
▁尝	-13985
▁屈	-13986
▁展	-13987
▁席	-13988
▁常	-13989
▁弓	-13990
▁弱	-13991
▁彻	-13992
▁征	-13993
▁律	-13994
▁忆	-13995
▁忒	-13996
▁忽	-13997
▁怨	-13998
▁悠	-13999
▁悲	-14000
▁惧	-14001
▁惹	-14002
▁慈	-14003
▁慢	-14004
▁懒	-14005
▁戴	-14006
▁披	-14007
▁抹	-14008
▁拐	-14009
▁拥	-14010
▁指	-14011
▁按	-14012
▁挣	-14013
▁损	-14014
▁捧	-14015
▁接	-14016
▁擒	-14017
▁改	-14018
▁敌	-14019
▁敲	-14020
▁斜	-14021
▁断	-14022
▁新	-14023
▁施	-14024
▁晓	-14025
▁晚	-14026
▁景	-14027
▁期	-14028
▁柜	-14029
▁桃	-14030
▁梁	-14031
▁欺	-14032
▁毕	-14033
▁毫	-14034
▁润	-14035
▁滑	-14036
▁炼	-14037
▁烟	-14038
▁烦	-14039
▁焦	-14040
▁犬	-14041
▁猛	-14042
▁猪	-14043
▁珠	-14044
▁理	-14045
▁琢	-14046
▁瓶	-14047
▁田	-14048
▁疑	-14049
▁疼	-14050
▁痛	-14051
▁眉	-14052
▁睛	-14053
▁砂	-14054
▁碎	-14055
▁碧	-14056
▁种	-14057
▁程	-14058
▁窝	-14059
▁米	-14060
▁粗	-14061
▁索	-14062
▁绒	-14063
▁绳	-14064
▁耍	-14065
▁耶	-14066
▁肉	-14067
▁肚	-14068
▁臣	-14069
▁艺	-14070
▁芦	-14071
▁苍	-14072
▁荡	-14073
▁蒲	-14074
▁虫	-14075
▁血	-14076
▁襟	-14077
▁讨	-14078
▁讫	-14079
▁谈	-14080
▁貌	-14081
▁负	-14082
▁贵	-14083
▁赌	-14084
▁赐	-14085
▁赴	-14086
▁赵	-14087
▁跌	-14088
▁跳	-14089
▁踏	-14090
▁蹬	-14091
▁辰	-14092
▁迭	-14093
▁逃	-14094
▁遍	-14095
▁遮	-14096
▁郡	-14097
▁配	-14098
▁量	-14099
▁铙	-14100
▁锋	-14101
▁错	-14102
▁闷	-14103
▁陀	-14104
▁隐	-14105
▁雁	-14106
▁雪	-14107
▁霄	-14108
▁鞭	-14109
▁额	-14110
▁饮	-14111
▁饱	-14112
▁饶	-14113
▁馍	-14114
▁驮	-14115
▁鬓	-14116
▁鲁	-14117
▁鸣	-14118
▁鹰	-14119
▁鼍	-14120
▁鼻	-14121
□,	-14122
一功	-14123
一名	-14124
一哭	-14125
一啄	-14126
一壁	-14127
一女	-14128
一展	-14129
一席	-14130
一幌	-14131
一并	-14132
一捻	-14133
一推	-14134
一月	-14135
一架	-14136
一概	-14137
一歇	-14138
一殿	-14139
一物	-14140
一等	-14141
一群	-14142
一翻	-14143
一舌	-14144
一节	-14145
一表	-14146
一起	-14147
一递	-14148
一间	-14149
一饱	-14150
丁丁	-14151
丁在	-14152
七岁	-14153
七月	-14154
万万	-14155
万境	-14156
万福	-14157
万种	-14158
万象	-14159
万顷	-14160
丈余	-14161
丈多	-14162
丈高	-14163
三三	-14164
三僧	-14165
三光	-14166
三公	-14167
三关	-14168
三只	-14169
三官	-14170
三席	-14171
三斤	-14172
三棱	-14173
三毛	-14174
三江	-14175
三略	-14176
三秋	-14177
三等	-14178
三载	-14179
三阳	-14180
上几	-14181
上古	-14182
上台	-14183
上司	-14184
上寿	-14185
上弦	-14186
上流	-14187
上渡	-14188
上西	-14189
上辇	-14190
上那	-14191
上镌	-14192
上阵	-14193
上首	-14194
下九	-14195
下书	-14196
下听	-14197
下四	-14198
下天	-14199
下座	-14200
下流	-14201
下至	-14202
下起	-14203
下路	-14204
不以	-14205
不使	-14206
不依	-14207
不借	-14208
不做	-14209
不厌	-14210
不和	-14211
不坐	-14212
不小	-14213
不弃	-14214
不待	-14215
不忿	-14216
不悦	-14217
不敌	-14218
不敬	-14219
不望	-14220
不清	-14221
不牢	-14222
不犯	-14223
不痒	-14224
不睦	-14225
不等	-14226
不肖	-14227
不装	-14228
不让	-14229
不走	-14230
不辨	-14231
不醒	-14232
不问	-14233
不阻	-14234
不青	-14235
不顺	-14236
与凤	-14237
与沙	-14238
与臣	-14239
与魔	-14240
专等	-14241
且到	-14242
且喜	-14243
且暂	-14244
且睡	-14245
且自	-14246
且让	-14247
且走	-14248
世尘	-14249
世情	-14250
世无	-14251
东回	-14252
东宫	-14253
东山	-14254
东岸	-14255
东极	-14256
东风	-14257
丝帕	-14258
丢砖	-14259
两回	-14260
两块	-14261
两张	-14262
两把	-14263
两根	-14264
两泪	-14265
两遭	-14266
丧胆	-14267
丧门	-14268
个儿	-14269
个月	-14270
丫环	-14271
中他	-14272
中军	-14273
中取	-14274
中用	-14275
中道	-14276
丸子	-14277
丸药	-14278
丹崖	-14279
丹田	-14280
为亲	-14281
为先	-14282
为君	-14283
为嘴	-14284
为子	-14285
为害	-14286
为念	-14287
为汝	-14288
为王	-14289
为谢	-14290
举箸	-14291
乃一	-14292
久了	-14293
久停	-14294
久占	-14295
久旱	-14296
久病	-14297
久矣	-14298
义气	-14299
义的	-14300
之丹	-14301
之会	-14302
之兵	-14303
之则	-14304
之初	-14305
之势	-14306
之恨	-14307
之手	-14308
之灵	-14309
之第	-14310
之策	-14311
之能	-14312
之色	-14313
之诗	-14314
之话	-14315
之象	-14316
之远	-14317
之食	-14318
乐以	-14319
乐器	-14320
乖滑	-14321
九千	-14322
九叶	-14323
九宫	-14324
九月	-14325
九泉	-14326
九瓣	-14327
九秋	-14328
九种	-14329
九老	-14330
九阳	-14331
乞化	-14332
也为	-14333
也使	-14334
也带	-14335
也得	-14336
也怕	-14337
也抬	-14338
也由	-14339
也略	-14340
也算	-14341
也莫	-14342
也解	-14343
也说	-14344
买做	-14345
乱刺	-14346
乱叫	-14347
乱想	-14348
乱扑	-14349
乱撺	-14350
乱敲	-14351
乱舞	-14352
乱落	-14353
乱语	-14354
乱飞	-14355
乾元	-14356
了命	-14357
了山	-14358
了心	-14359
了此	-14360
了花	-14361
争先	-14362
争讲	-14363
事业	-14364
二两	-14365
二寸	-14366
二尺	-14367
二年	-14368
二气	-14369
二狮	-14370
于我	-14371
亏也	-14372
云外	-14373
云履	-14374
云散	-14375
云梯	-14376
云烟	-14377
云童	-14378
云起	-14379
云飞	-14380
云髻	-14381
五万	-14382
五台	-14383
五右	-14384
五帝	-14385
五斗	-14386
五福	-14387
五脏	-14388
五辆	-14389
五鼓	-14390
井底	-14391
井边	-14392
些破	-14393
亡者	-14394
交媾	-14395
交纳	-14396
亦俱	-14397
亦甚	-14398
亦皆	-14399
亦非	-14400
享之	-14401
亲女	-14402
亲眷	-14403
亲自	-14404
人伦	-14405
人到	-14406
人嚷	-14407
人声	-14408
人怎	-14409
人熟	-14410
人自	-14411
人话	-14412
人静	-14413
今因	-14414
今奉	-14415
今既	-14416
今时	-14417
今特	-14418
今被	-14419
仍前	-14420
从地	-14421
从容	-14422
从小	-14423
从新	-14424
从空	-14425
从门	-14426
他再	-14427
他叫	-14428
他和	-14429
他哩	-14430
他害	-14431
他师	-14432
他怎	-14433
他打	-14434
他等	-14435
仙姑	-14436
仙方	-14437
仙肴	-14438
仙药	-14439
仙酒	-14440
仙音	-14441
仙鹤	-14442
令堂	-14443
令弟	-14444
仪制	-14445
仰天	-14446
任我	-14447
休惊	-14448
休要	-14449
休讲	-14450
众位	-14451
众女	-14452
会做	-14453
会合	-14454
会喜	-14455
会我	-14456
传出	-14457
传播	-14458
传茶	-14459
传道	-14460
伤其	-14461
伶仃	-14462
伸拳	-14463
似插	-14464
似锦	-14465
似飞	-14466
但要	-14467
佈平	-14468
住场	-14469
住的	-14470
何妨	-14471
何年	-14472
何意	-14473
何等	-14474
何罪	-14475
何苦	-14476
何说	-14477
何难	-14478
何须	-14479
佛国	-14480
佛头	-14481
佛母	-14482
佛爷	-14483
作善	-14484
作弊	-14485
作怒	-14486
作福	-14487
作笑	-14488
作践	-14489
作队	-14490
你为	-14491
你亦	-14492
你会	-14493
你反	-14494
你哭	-14495
你强	-14496
你忒	-14497
你死	-14498
你甚	-14499
你笑	-14500
你管	-14501
你试	-14502
佳偶	-14503
佳姻	-14504
佳景	-14505
使一	-14506
使些	-14507
侍卫	-14508
供道	-14509
依时	-14510
侥幸	-14511
侮暗	-14512
侮着	-14513
便刺	-14514
便可	-14515
便生	-14516
便筑	-14517
便见	-14518
便觉	-14519
促马	-14520
俊了	-14521
俊雅	-14522
俗尘	-14523
俗辈	-14524
保佑	-14525
修桥	-14526
俱全	-14527
俱完	-14528
俱来	-14529
倒塌	-14530
倒悬	-14531
倒是	-14532
倒还	-14533
倒验	-14534
倘有	-14535
候接	-14536
借些	-14537
值钱	-14538
倾国	-14539
倾城	-14540
假设	-14541
假象	-14542
假身	-14543
偏是	-14544
做些	-14545
做出	-14546
做小	-14547
做鬼	-14548
停杯	-14549
停留	-14550
停翅	-14551
偶遇	-14552
偷宝	-14553
偷来	-14554
偷盗	-14555
偷看	-14556
催趱	-14557
僧鞋	-14558
儿做	-14559
儿好	-14560
儿等	-14561
儿装	-14562
允他	-14563
元气	-14564
元精	-14565
兄妹	-14566
先与	-14567
先到	-14568
先将	-14569
先年	-14570
先王	-14571
先见	-14572
光中	-14573
光满	-14574
克火	-14575
免教	-14576
兔死	-14577
兕怪	-14578
入他	-14579
入内	-14580
入口	-14581
入吾	-14582
入定	-14583
入腹	-14584
全始	-14585
全终	-14586
公子	-14587
公绦	-14588
六六	-14589
六卷	-14590
六月	-14591
六韬	-14592
兰心	-14593
共入	-14594
共坐	-14595
关风	-14596
兴隆	-14597
其由	-14598
其美	-14599
典刑	-14600
养家	-14601
养成	-14602
养生	-14603
养鱼	-14604
内一	-14605
内的	-14606
再与	-14607
再停	-14608
再处	-14609
再得	-14610
再谢	-14611
冠束	-14612
冰解	-14613
冷落	-14614
冷饭	-14615
冻结	-14616
凄怆	-14617
准奏	-14618
凋零	-14619
凑集	-14620
几分	-14621
几多	-14622
几根	-14623
几次	-14624
几遍	-14625
几间	-14626
凡尘	-14627
凡心	-14628
凤阁	-14629
凤髓	-14630
凭他	-14631
凶吉	-14632
凶猛	-14633
出丑	-14634
出世	-14635
出力	-14636
出名	-14637
出声	-14638
出此	-14639
出给	-14640
出血	-14641
出道	-14642
刀斧	-14643
刀迎	-14644
分别	-14645
分瓣	-14646
分用	-14647
分身	-14648
分辨	-14649
切勿	-14650
刑房	-14651
则同	-14652
初动	-14653
别后	-14654
别寻	-14655
别的	-14656
刮风	-14657
到三	-14658
到山	-14659
到舍	-14660
刷锅	-14661
削削	-14662
前因	-14663
前头	-14664
前缘	-14665
剥得	-14666
剪伐	-14667
力壮	-14668
力量	-14669
务必	-14670
务要	-14671
动动	-14672
动得	-14673
动荤	-14674
助他	-14675
助助	-14676
助我	-14677
助战	-14678
劫的	-14679
劳劳	-14680
劳心	-14681
勇猛	-14682
勒在	-14683
勒得	-14684
勒袍	-14685
勤谨	-14686
化做	-14687
化风	-14688
北海	-14689
北艮	-14690
医好	-14691
医官	-14692
医得	-14693
医罢	-14694
匾担	-14695
十指	-14696
十洲	-14697
千块	-14698
千家	-14699
千尺	-14700
千日	-14701
千株	-14702
千样	-14703
千重	-14704
千针	-14705
千颗	-14706
升空	-14707
半分	-14708
半天	-14709
半载	-14710
半露	-14711
华宗	-14712
卖放	-14713
卖的	-14714
南来	-14715
南极	-14716
南柯	-14717
危急	-14718
即为	-14719
即入	-14720
即召	-14721
即差	-14722
即报	-14723
即教	-14724
即有	-14725
即现	-14726
即驾	-14727
却使	-14728
却俱	-14729
却只	-14730
却惹	-14731
却无	-14732
却表	-14733
却象	-14734
却走	-14735
却遭	-14736
卷舒	-14737
卷起	-14738
压住	-14739
压倒	-14740
压龙	-14741
厮打	-14742
去下	-14743
去买	-14744
去做	-14745
去就	-14746
去急	-14747
去拜	-14748
去捉	-14749
去求	-14750
去赴	-14751
参天	-14752
又上	-14753
又况	-14754
又取	-14755
又唤	-14756
又喜	-14757
又差	-14758
又得	-14759
又急	-14760
又承	-14761
又抬	-14762
又换	-14763
又敢	-14764
又晚	-14765
又结	-14766
又肯	-14767
又转	-14768
又送	-14769
又飞	-14770
又骂	-14771
叉儿	-14772
及问	-14773
双睛	-14774
双脚	-14775
双鸟	-14776
反悔	-14777
发他	-14778
发急	-14779
发挥	-14780
发昏	-14781
发火	-14782
发课	-14783
取人	-14784
取何	-14785
取去	-14786
取宝	-14787
取将	-14788
取笑	-14789
取罪	-14790
受难	-14791
变千	-14792
变小	-14793
变百	-14794
叙情	-14795
口刀	-14796
口占	-14797
口口	-14798
口吐	-14799
口唱	-14800
口念	-14801
口敞	-14802
口问	-14803
古刹	-14804
古迹	-14805
古铜	-14806
叩齿	-14807
只一	-14808
只以	-14809
只嚷	-14810
只待	-14811
只结	-14812
只除	-14813
只骂	-14814
叫出	-14815
叫地	-14816
叫天	-14817
叫来	-14818
叫起	-14819
叫门	-14820
可保	-14821
可去	-14822
可取	-14823
可回	-14824
可施	-14825
可治	-14826
可渡	-14827
可肯	-14828
台前	-14829
叱咤	-14830
叵耐	-14831
叶叶	-14832
号为	-14833
吃罢	-14834
吃草	-14835
吃药	-14836
吃过	-14837
吃食	-14838
各办	-14839
各回	-14840
各处	-14841
各山	-14842
各带	-14843
各拿	-14844
各轮	-14845
合卺	-14846
合眼	-14847
合着	-14848
吉少	-14849
吊桥	-14850
同寿	-14851
同我	-14852
同证	-14853
同走	-14854
名为	-14855
名姓	-14856
名扬	-14857
名曰	-14858
名称	-14859
名誉	-14860
后代	-14861
后吃	-14862
后带	-14863
后房	-14864
后架	-14865
后被	-14866
向佛	-14867
向时	-14868
向蒙	-14869
君恩	-14870
吟哦	-14871
含悲	-14872
含羞	-14873
听候	-14874
听宣	-14875
听时	-14876
听毕	-14877
听的	-14878
启问	-14879
吸吸	-14880
吹入	-14881
吹打	-14882
吹笙	-14883
吾党	-14884
吾意	-14885
吾教	-14886
呆哩	-14887
呆性	-14888
告的	-14889
呢喃	-14890
周正	-14891
味道	-14892
呵欠	-14893
命苦	-14894
命里	-14895
咆哮	-14896
咒我	-14897
咨牙	-14898
咬我	-14899
咬指	-14900
咬断	-14901
咬破	-14902
咳嗽	-14903
咽下	-14904
品物	-14905
品级	-14906
哄哄	-14907
哈巴	-14908
响了	-14909
哭到	-14910
哭甚	-14911
哭着	-14912
唐人	-14913
唐大	-14914
唤为	-14915
唤入	-14916
唬人	-14917
啼鸟	-14918
善信	-14919
善士	-14920
善庆	-14921
善慈	-14922
善胜	-14923
喉舌	-14924
喊叫	-14925
喜之	-14926
喜了	-14927
喜事	-14928
喜花	-14929
喝起	-14930
喝路	-14931
喳喳	-14932
喷嚏	-14933
嗔怒	-14934
嘤嘤	-14935
嘴唇	-14936
嘴的	-14937
嚷处	-14938
嚷至	-14939
四围	-14940
四国	-14941
四字	-14942
四岁	-14943
四更	-14944
四望	-14945
四足	-14946
四路	-14947
四边	-14948
四门	-14949
回向	-14950
回天	-14951
回宫	-14952
回山	-14953
回峦	-14954
回见	-14955
回驿	-14956
因他	-14957
因汝	-14958
因由	-14959
因过	-14960
因问	-14961
团圆	-14962
园门	-14963
国里	-14964
圆明	-14965
圆睛	-14966
圈套	-14967
圜眼	-14968
土人	-14969
圣人	-14970
圣君	-14971
圣胎	-14972
圣驾	-14973
在一	-14974
在何	-14975
在先	-14976
在府	-14977
在树	-14978
在正	-14979
在西	-14980
在黑	-14981
地头	-14982
地理	-14983
地裂	-14984
地铺	-14985
坊司	-14986
坐位	-14987
坐名	-14988
坚硬	-14989
坚辞	-14990
坛场	-14991
坟墓	-14992
坠地	-14993
垓心	-14994
埋了	-14995
埋在	-14996
城墙	-14997
基址	-14998
堂堂	-14999
堆积	-15000
堆鸦	-15001
塔中	-15002
墙壁	-15003
墙根	-15004
壁陡	-15005
壮士	-15006
声去	-15007
声名	-15008
声吼	-15009
声声	-15010
声雷	-15011
处之	-15012
处所	-15013
处求	-15014
备得	-15015
备马	-15016
复上	-15017
复入	-15018
复去	-15019
复转	-15020
夏秋	-15021
外我	-15022
外有	-15023
外甥	-15024
多是	-15025
多目	-15026
多磨	-15027
多累	-15028
多闻	-15029
夜宿	-15030
大了	-15031
大厅	-15032
大厦	-15033
大咤	-15034
大恩	-15035
大无	-15036
大智	-15037
大棍	-15038
大步	-15039
大睁	-15040
大石	-15041
大风	-15042
大魔	-15043
大黄	-15044
天公	-15045
天呀	-15046
天大	-15047
天庭	-15048
天文	-15049
天早	-15050
天星	-15051
天朝	-15052
天灵	-15053
天界	-15054
天缘	-15055
天送	-15056
天那	-15057
天阙	-15058
天齐	-15059
太和	-15060
太清	-15061
太空	-15062
失于	-15063
头也	-15064
头如	-15065
头昏	-15066
头脸	-15067
头话	-15068
头道	-15069
头陀	-15070
夹活	-15071
夹脊	-15072
夺过	-15073
奇哉	-15074
奈我	-15075
奉与	-15076
奉告	-15077
奉拜	-15078
奉谢	-15079
奎星	-15080
奏准	-15081
奔走	-15082
套在	-15083
奴婢	-15084
好斗	-15085
好来	-15086
好水	-15087
好茶	-15088
好说	-15089
好走	-15090
如同	-15091
如天	-15092
如如	-15093
如我	-15094
如梭	-15095
如玉	-15096
如痴	-15097
如竹	-15098
妃嫔	-15099
妄想	-15100
妆奁	-15101
妆新	-15102
妆花	-15103
妆饰	-15104
妖剑	-15105
妖摄	-15106
妖神	-15107
妙妙	-15108
妙计	-15109
妙诀	-15110
妙道	-15111
妙龄	-15112
妹丈	-15113
妹子	-15114
妻子	-15115
委的	-15116
姨夫	-15117
威威	-15118
威武	-15119
娇声	-15120
娇娇	-15121
娇艳	-15122
娘啊	-15123
媳妇	-15124
嫌我	-15125
嫩柳	-15126
子做	-15127
子哩	-15128
子孙	-15129
子时	-15130
字样	-15131
孙悟	-15132
孝服	-15133
孝顺	-15134
孤魂	-15135
学得	-15136
宁心	-15137
安了	-15138
安于	-15139
完了	-15140
官将	-15141
官拜	-15142
官职	-15143
定个	-15144
定夺	-15145
定得	-15146
定有	-15147
定然	-15148
定罪	-15149
定身	-15150
宝常	-15151
宝珠	-15152
实地	-15153
实情	-15154
宠幸	-15155
审问	-15156
客子	-15157
客房	-15158
客旅	-15159
客来	-15160
宣花	-15161
宫商	-15162
宫外	-15163
宫阙	-15164
害他	-15165
害命	-15166
害子	-15167
家三	-15168
家事	-15169
家属	-15170
家庄	-15171
家来	-15172
家法	-15173
家父	-15174
家讨	-15175
家门	-15176
容娇	-15177
宽了	-15178
宽恕	-15179
宽洪	-15180
宿处	-15181
寂静	-15182
寄书	-15183
密布	-15184
寒冷	-15185
寒威	-15186
寒薄	-15187
对月	-15188
对答	-15189
对行	-15190
对证	-15191
对那	-15192
寻坡	-15193
寻处	-15194
寻得	-15195
寻思	-15196
寻至	-15197
寻讨	-15198
封了	-15199
封锁	-15200
将五	-15201
将些	-15202
将刀	-15203
将旗	-15204
将晚	-15205
将药	-15206
将虎	-15207
将遇	-15208
将酒	-15209
将钯	-15210
尊佛	-15211
尊利	-15212
尊号	-15213
尊性	-15214
尊神	-15215
小如	-15216
小字	-15217
小王	-15218
小菜	-15219
小辈	-15220
少要	-15221
尘土	-15222
尘沙	-15223
尚存	-15224
就与	-15225
就也	-15226
就了	-15227
就会	-15228
就占	-15229
就和	-15230
就哭	-15231
就奔	-15232
就学	-15233
就害	-15234
就寝	-15235
就捉	-15236
就起	-15237
就连	-15238
就送	-15239
就都	-15240
就里	-15241
尺余	-15242
尺脉	-15243
尾子	-15244
屏门	-15245
展足	-15246
山兽	-15247
山势	-15248
山北	-15249
山寺	-15250
山茶	-15251
山药	-15252
山雉	-15253
山顶	-15254
山颓	-15255
岁上	-15256
岩前	-15257
峰峦	-15258
峰插	-15259
嵌宝	-15260
巍峨	-15261
巡城	-15262
巡拦	-15263
巡酒	-15264
巡风	-15265
左臂	-15266
左进	-15267
巨口	-15268
差二	-15269
差别	-15270
差错	-15271
已久	-15272
已到	-15273
已有	-15274
已死	-15275
已经	-15276
巴豆	-15277
市上	-15278
市口	-15279
布种	-15280
布裹	-15281
布阵	-15282
帘儿	-15283
帝主	-15284
帝位	-15285
带出	-15286
带在	-15287
带将	-15288
带束	-15289
带至	-15290
常存	-15291
常怀	-15292
干这	-15293
平人	-15294
平分	-15295
平平	-15296
平桥	-15297
年代	-15298
年月	-15299
年甲	-15300
年矣	-15301
并力	-15302
并肩	-15303
幸有	-15304
幸而	-15305
幼时	-15306
幽禽	-15307
幽雅	-15308
幽香	-15309
幽鸟	-15310
广陈	-15311
庄前	-15312
庆云	-15313
店房	-15314
店里	-15315
庙祝	-15316
庙门	-15317
庶好	-15318
廊房	-15319
延年	-15320
延生	-15321
建章	-15322
开园	-15323
开宴	-15324
开明	-15325
开玉	-15326
开鼎	-15327
异姓	-15328
异果	-15329
弃了	-15330
弄杖	-15331
弄死	-15332
引他	-15333
引至	-15334
张良	-15335
张葛	-15336
强中	-15337
强能	-15338
彀吃	-15339
归佛	-15340
归家	-15341
归西	-15342
当初	-15343
当天	-15344
当有	-15345
当饭	-15346
影影	-15347
彼处	-15348
彼此	-15349
征战	-15350
径赴	-15351
径飞	-15352
待茶	-15353
徐行	-15354
得令	-15355
得力	-15356
得年	-15357
得睡	-15358
得财	-15359
得遇	-15360
御案	-15361
御赐	-15362
心内	-15363
心坚	-15364
心忙	-15365
心意	-15366
心欢	-15367
心毒	-15368
心肠	-15369
心酸	-15370
忍不	-15371
忍气	-15372
忒卖	-15373
忒恶	-15374
忖道	-15375
忘忧	-15376
忤逆	-15377
快乐	-15378
快取	-15379
快如	-15380
快寻	-15381
快接	-15382
快点	-15383
忽有	-15384
忽被	-15385
忽遇	-15386
怆惶	-15387
怒声	-15388
怒目	-15389
怕人	-15390
怕是	-15391
思自	-15392
怡颜	-15393
急到	-15394
急去	-15395
急唤	-15396
急走	-15397
性情	-15398
性格	-15399
性燥	-15400
性自	-15401
怨恨	-15402
怪之	-15403
怪来	-15404
怯战	-15405
总督	-15406
恁般	-15407
恋战	-15408
恐为	-15409
恐生	-15410
恩惠	-15411
恶气	-15412
恶鬼	-15413
恼他	-15414
悔之	-15415
悔道	-15416
悦色	-15417
悬梁	-15418
悭吝	-15419
悲怨	-15420
情上	-15421
情性	-15422
情意	-15423
情投	-15424
情疏	-15425
惊惊	-15426
惊觉	-15427
惊驾	-15428
惟道	-15429
惭惶	-15430
惹了	-15431
惹我	-15432
愁云	-15433
意美	-15434
愚迷	-15435
感之	-15436
感得	-15437
愧无	-15438
慌慌	-15439
慢说	-15440
懊恨	-15441
戏弄	-15442
成熟	-15443
成胎	-15444
成行	-15445
成金	-15446
成阵	-15447
我亦	-15448
我吃	-15449
我命	-15450
我啊	-15451
我大	-15452
我头	-15453
我定	-15454
我待	-15455
我得	-15456
我心	-15457
我意	-15458
我拿	-15459
我教	-15460
我正	-15461
我比	-15462
我肯	-15463
我舍	-15464
我身	-15465
我道	-15466
戒刀	-15467
战的	-15468
戴上	-15469
房内	-15470
房檐	-15471
所奏	-15472
所生	-15473
所言	-15474
所赐	-15475
扇得	-15476
扇来	-15477
扇耳	-15478
手儿	-15479
手帕	-15480
手扑	-15481
手拿	-15482
手掌	-15483
手提	-15484
手摇	-15485
手本	-15486
手疼	-15487
手重	-15488
才知	-15489
才问	-15490
扑扑	-15491
扑通	-15492
打下	-15493
打不	-15494
打五	-15495
打仗	-15496
打仰	-15497
打你	-15498
打便	-15499
打去	-15500
打点	-15501
打至	-15502
打虎	-15503
扢扠	-15504
执定	-15505
扬威	-15506
扬沙	-15507
扯个	-15508
扯拉	-15509
扯谎	-15510
扳倒	-15511
扳开	-15512
把妖	-15513
把山	-15514
把棒	-15515
把火	-15516
抓耳	-15517
投奔	-15518
折辩	-15519
抛去	-15520
抛打	-15521
抟砂	-15522
抢白	-15523
护佑	-15524
护体	-15525
报事	-15526
报冤	-15527
报声	-15528
报恩	-15529
报我	-15530
披着	-15531
披风	-15532
抱出	-15533
抱起	-15534
抵挡	-15535
押着	-15536
拂拂	-15537
拄杖	-15538
拆了	-15539
拐棒	-15540
拐角	-15541
拔出	-15542
拖出	-15543
拖泥	-15544
拘唤	-15545
招个	-15546
招医	-15547
招回	-15548
拜谒	-15549
拱伏	-15550
拴锁	-15551
拷打	-15552
拽回	-15553
拽拽	-15554
拿下	-15555
拿个	-15556
拿刀	-15557
拿在	-15558
拿法	-15559
拿的	-15560
挂在	-15561
挂念	-15562
挂搭	-15563
指挥	-15564
指甲	-15565
挑得	-15566
挑菜	-15567
挠腮	-15568
振天	-15569
挺挺	-15570
挺硬	-15571
捉他	-15572
捣蒜	-15573
捻了	-15574
捻手	-15575
排排	-15576
排筵	-15577
排驾	-15578
探听	-15579
接天	-15580
推推	-15581
推轮	-15582
提起	-15583
揩泪	-15584
揭的	-15585
揭盖	-15586
揭衣	-15587
搀道	-15588
搂住	-15589
搅得	-15590
搭个	-15591
搭在	-15592
携着	-15593
摄了	-15594
摆出	-15595
摆手	-15596
摆渡	-15597
摆着	-15598
摇一	-15599
摇手	-15600
摇拽	-15601
摘下	-15602
摘桃	-15603
摩弄	-15604
摸出	-15605
撞个	-15606
撞出	-15607
撞头	-15608
撞撞	-15609
撞脑	-15610
撞至	-15611
撩衣	-15612
撺唆	-15613
撼石	-15614
擒得	-15615
擒捉	-15616
擒此	-15617
擦掌	-15618
攒成	-15619
支更	-15620
支锅	-15621
收兵	-15622
收敛	-15623
收水	-15624
收讫	-15625
改色	-15626
放回	-15627
放烟	-15628
放着	-15629
放赖	-15630
放赦	-15631
放风	-15632
故旧	-15633
敌住	-15634
敌山	-15635
救护	-15636
救解	-15637
教之	-15638
教令	-15639
教旨	-15640
教道	-15641
敛袖	-15642
敢出	-15643
敢擅	-15644
敢烦	-15645
散伙	-15646
散心	-15647
散福	-15648
散讫	-15649
敦请	-15650
敬道	-15651
敬重	-15652
数声	-15653
数目	-15654
敲锣	-15655
整欢	-15656
整理	-15657
文人	-15658
文官	-15659
斋了	-15660
斋公	-15661
斋天	-15662
斋经	-15663
斗时	-15664
斗糖	-15665
料着	-15666
斤两	-15667
斧剁	-15668
断不	-15669
断砖	-15670
断要	-15671
方儿	-15672
方向	-15673
方然	-15674
旁立	-15675
旗鼓	-15676
无一	-15677
无为	-15678
无义	-15679
无依	-15680
无倚	-15681
无儿	-15682
无凭	-15683
无可	-15684
无妨	-15685
无损	-15686
无灭	-15687
无理	-15688
无眼	-15689
无端	-15690
无邪	-15691
无风	-15692
既去	-15693
既如	-15694
既知	-15695
既蒙	-15696
日前	-15697
日暖	-15698
日期	-15699
旧话	-15700
旨令	-15701
早去	-15702
早春	-15703
早赴	-15704
时常	-15705
时来	-15706
时闻	-15707
明了	-15708
明师	-15709
明显	-15710
明灯	-15711
明知	-15712
昏暗	-15713
易取	-15714
星冠	-15715
春光	-15716
春来	-15717
春深	-15718
春联	-15719
是些	-15720
是什	-15721
是只	-15722
是啊	-15723
是座	-15724
是怪	-15725
是臣	-15726
是送	-15727
显个	-15728
显威	-15729
晃晃	-15730
晒干	-15731
晚景	-15732
暂停	-15733
暗喜	-15734
暗的	-15735
暗笑	-15736
暮宿	-15737
暴躁	-15738
曲涧	-15739
更待	-15740
更新	-15741
更是	-15742
替身	-15743
最能	-15744
月上	-15745
月下	-15746
月儿	-15747
月夜	-15748
月宫	-15749
月小	-15750
月斋	-15751
月色	-15752
月貌	-15753
有万	-15754
有九	-15755
有半	-15756
有大	-15757
有好	-15758
有山	-15759
有形	-15760
有得	-15761
有德	-15762
有智	-15763
有灾	-15764
有福	-15765
有能	-15766
服了	-15767
服饰	-15768
朕即	-15769
朕因	-15770
望前	-15771
望我	-15772
望望	-15773
朝来	-15774
朝贡	-15775
朝餐	-15776
木头	-15777
木忝	-15778
木植	-15779
木槿	-15780
未免	-15781
未分	-15782
未动	-15783
未回	-15784
未开	-15785
未经	-15786
本也	-15787
本府	-15788
本衙	-15789
札营	-15790
朱砂	-15791
朱红	-15792
机关	-15793
杀生	-15794
权借	-15795
权表	-15796
权谢	-15797
杆长	-15798
束束	-15799
来吞	-15800
来因	-15801
来就	-15802
来庆	-15803
来抓	-15804
来拿	-15805
来收	-15806
来救	-15807
来献	-15808
来西	-15809
来说	-15810
来降	-15811
杨树	-15812
杨梅	-15813
杯儿	-15814
松了	-15815
松根	-15816
极善	-15817
极易	-15818
枉自	-15819
林树	-15820
林檎	-15821
果木	-15822
果若	-15823
枝香	-15824
枪的	-15825
枯木	-15826
架着	-15827
柜中	-15828
柜子	-15829
查耳	-15830
柯斧	-15831
柳绿	-15832
柳阴	-15833
柿子	-15834
树去	-15835
树林	-15836
树根	-15837
树活	-15838
树高	-15839
根本	-15840
根源	-15841
根由	-15842
根罢	-15843
桧树	-15844
梅山	-15845
梦哩	-15846
梦斩	-15847
梦见	-15848
梧桐	-15849
梭罗	-15850
棍下	-15851
棍打	-15852
棍重	-15853
棕衣	-15854
棵树	-15855
楮白	-15856
楼前	-15857
槽上	-15858
樊笼	-15859
横行	-15860
檐前	-15861
欲将	-15862
欲来	-15863
欲留	-15864
欲行	-15865
欲见	-15866
欺骗	-15867
歇马	-15868
止存	-15869
正事	-15870
正才	-15871
正经	-15872
正讲	-15873
正路	-15874
此之	-15875
此也	-15876
此位	-15877
此名	-15878
此城	-15879
此河	-15880
此理	-15881
此等	-15882
此辈	-15883
此门	-15884
步虚	-15885
武将	-15886
死鬼	-15887
殿外	-15888
每一	-15889
每味	-15890
每每	-15891
毒了	-15892
毒情	-15893
比他	-15894
比众	-15895
比甲	-15896
比较	-15897
毛神	-15898
民快	-15899
气儿	-15900
气来	-15901
气概	-15902
气象	-15903
水上	-15904
水为	-15905
水法	-15906
水浸	-15907
水涸	-15908
水漫	-15909
水牛	-15910
水蛇	-15911
水飞	-15912
水高	-15913
永堕	-15914
永远	-15915
求亲	-15916
求借	-15917
求宿	-15918
江月	-15919
江水	-15920
江海	-15921
池中	-15922
池塘	-15923
汹涌	-15924
沉思	-15925
沉沦	-15926
沉睡	-15927
沉西	-15928
沉重	-15929
沙四	-15930
沙沙	-15931
没些	-15932
没得	-15933
没我	-15934
没水	-15935
没眼	-15936
河兵	-15937
河沿	-15938
油嘴	-15939
油头	-15940
油腻	-15941
治世	-15942
治治	-15943
沽酒	-15944
法船	-15945
法讳	-15946
泛涨	-15947
泥土	-15948
泥塑	-15949
洋海	-15950
洗洗	-15951
活人	-15952
活树	-15953
流云	-15954
流涎	-15955
浅水	-15956
浅红	-15957
浆水	-15958
浑战	-15959
浑波	-15960
浑然	-15961
浪飞	-15962
海会	-15963
海兵	-15964
海榴	-15965
海深	-15966
海边	-15967
涂炭	-15968
消死	-15969
消除	-15970
涌泉	-15971
润红	-15972
涧去	-15973
淡淡	-15974
淫心	-15975
淮水	-15976
深处	-15977
深夜	-15978
深沉	-15979
深知	-15980
混世	-15981
清德	-15982
清明	-15983
清油	-15984
渐晚	-15985
渡船	-15986
温习	-15987
温关	-15988
温养	-15989
游戏	-15990
游蜂	-15991
湛湛	-15992
溜溜	-15993
溪桥	-15994
滚油	-15995
满意	-15996
满月	-15997
满腔	-15998
满谷	-15999
漫过	-16000
漱口	-16001
潇洒	-16002
潺湲	-16003
,	-16004
▁	-16005
。	-16006
:	-16007
道	-16008
“	-16009
”	-16010
不	-16011
了	-16012
一	-16013
那	-16014
我	-16015
是	-16016
行	-16017
来	-16018
他	-16019
个	-16020
你	-16021
的	-16022
者	-16023
!	-16024
有	-16025
大	-16026
?	-16027
得	-16028
这	-16029
去	-16030
上	-16031
老	-16032
三	-16033
见	-16034
在	-16035
人	-16036
子	-16037
僧	-16038
也	-16039
里	-16040
下	-16041
师	-16042
着	-16043
只	-16044
又	-16045
妖	-16046
八	-16047
之	-16048
说	-16049
王	-16050
天	-16051
出	-16052
与	-16053
头	-16054
就	-16055
儿	-16056
却	-16057
看	-16058
戒	-16059
山	-16060
父	-16061
此	-16062
好	-16063
将	-16064
前	-16065
把	-16066
门	-16067
如	-16068
打	-16069
藏	-16070
无	-16071
怪	-16072
圣	-16073
中	-16074
么	-16075
身	-16076
等	-16077
小	-16078
时	-16079
们	-16080
怎	-16081
唐	-16082
叫	-16083
、	-16084
心	-16085
要	-16086
孙	-16087
到	-16088
手	-16089
何	-16090
知	-16091
长	-16092
走	-16093
家	-16094
两	-16095
言	-16096
金	-16097
日	-16098
回	-16099
正	-16100
住	-16101
十	-16102
还	-16103
沙	-16104
弟	-16105
声	-16106
二	-16107
处	-16108
生	-16109
都	-16110
马	-16111
云	-16112
精	-16113
起	-16114
—	-16115
和	-16116
神	-16117
水	-16118
路	-16119
风	-16120
方	-16121
笑	-16122
些	-16123
吃	-16124
众	-16125
今	-16126
真	-16127
国	-16128
拿	-16129
四	-16130
教	-16131
做	-16132
地	-16133
听	-16134
经	-16135
若	-16136
面	-16137
多	-16138
可	-16139
口	-16140
;	-16141
空	-16142
问	-16143
即	-16144
为	-16145
自	-16146
西	-16147
魔	-16148
过	-16149
变	-16150
尚	-16151
事	-16152
开	-16153
后	-16154
才	-16155
且	-16156
然	-16157
火	-16158
请	-16159
取	-16160
果	-16161
闻	-16162
徒	-16163
当	-16164
宝	-16165
放	-16166
洞	-16167
莫	-16168
哩	-16169
罢	-16170
仙	-16171
年	-16172
进	-16173
便	-16174
相	-16175
拜	-16176
龙	-16177
高	-16178
曾	-16179
分	-16180
边	-16181
佛	-16182
菩	-16183
至	-16184
五	-16185
难	-16186
敢	-16187
萨	-16188
女	-16189
往	-16190
间	-16191
几	-16192
命	-16193
光	-16194
明	-16195
法	-16196
花	-16197
倒	-16198
哥	-16199
东	-16200
棒	-16201
外	-16202
公	-16203
官	-16204
坐	-16205
喜	-16206
原	-16207
万	-16208
被	-16209
千	-16210
会	-16211
甚	-16212
气	-16213
爷	-16214
作	-16215
能	-16216
兄	-16217
早	-16218
使	-16219
悟	-16220
没	-16221
救	-16222
名	-16223
宫	-16224
本	-16225
什	-16226
般	-16227
入	-16228
化	-16229
急	-16230
念	-16231
土	-16232
再	-16233
寻	-16234
乃	-16235
收	-16236
同	-16237
用	-16238
话	-16239
主	-16240
观	-16241
呆	-16242
死	-16243
而	-16244
百	-16245
太	-16246
朝	-16247
白	-16248
想	-16249
径	-16250
半	-16251
物	-16252
解	-16253
成	-16254
定	-16255
礼	-16256
各	-16257
似	-16258
但	-16259
战	-16260
先	-16261
眼	-16262
因	-16263
意	-16264
齐	-16265
玉	-16266
转	-16267
城	-16268
性	-16269
衣	-16270
动	-16271
送	-16272
啊	-16273
以	-16274
海	-16275
快	-16276
猴	-16277
对	-16278
尽	-16279
惊	-16280
斗	-16281
殿	-16282
飞	-16283
星	-16284
香	-16285
内	-16286
望	-16287
铁	-16288
斋	-16289
石	-16290
降	-16291
满	-16292
兵	-16293
已	-16294
怕	-16295
报	-16296
力	-16297
谢	-16298
六	-16299
发	-16300
认	-16301
更	-16302
通	-16303
安	-16304
南	-16305
赶	-16306
近	-16307
跳	-16308
月	-16309
杀	-16310
君	-16311
夜	-16312
文	-16313
样	-16314
弄	-16315
情	-16316
须	-16317
黄	-16318
既	-16319
娘	-16320
忽	-16321
随	-16322
未	-16323
少	-16324
猪	-16325
故	-16326
七	-16327
九	-16328
落	-16329
乱	-16330
从	-16331
迎	-16332
向	-16333
干	-16334
语	-16335
灵	-16336
实	-16337
必	-16338
慌	-16339
远	-16340
清	-16341
钯	-16342
驾	-16343
合	-16344
暗	-16345
功	-16346
红	-16347
待	-16348
脱	-16349
苦	-16350
象	-16351
亲	-16352
直	-16353
于	-16354
色	-16355
虎	-16356
假	-16357
求	-16358
连	-16359
嘴	-16360
位	-16361
点	-16362
管	-16363
善	-16364
忙	-16365
根	-16366
喝	-16367
树	-16368
细	-16369
伤	-16370
脚	-16371
依	-16372
受	-16373
恐	-16374
条	-16375
睡	-16376
寺	-16377
关	-16378
传	-16379
扇	-16380
接	-16381
贝	-16382
音	-16383
扯	-16384
雨	-16385
带	-16386
毛	-16387
害	-16388
罗	-16389
唤	-16390
欢	-16391
俱	-16392
牛	-16393
耳	-16394
饭	-16395
步	-16396
紧	-16397
差	-16398
抬	-16399
留	-16400
刀	-16401
所	-16402
立	-16403
酒	-16404
字	-16405
座	-16406
脸	-16407
摇	-16408
木	-16409
童	-16410
净	-16411
士	-16412
帝	-16413
保	-16414
河	-16415
现	-16416
青	-16417
草	-16418
领	-16419
李	-16420
雷	-16421
奉	-16422
常	-16423
呼	-16424
母	-16425
穿	-16426
林	-16427
灯	-16428
第	-16429
护	-16430
遂	-16431
休	-16432
府	-16433
举	-16434
毕	-16435
松	-16436
泼	-16437
骂	-16438
左	-16439
流	-16440
数	-16441
纵	-16442
令	-16443
楼	-16444
破	-16445
张	-16446
重	-16447
深	-16448
施	-16449
胜	-16450
伏	-16451
归	-16452
轻	-16453
旨	-16454
箍	-16455
指	-16456
阴	-16457
罪	-16458
件	-16459
奏	-16460
散	-16461
理	-16462
场	-16463
欲	-16464
别	-16465
应	-16466
古	-16467
告	-16468
撞	-16469
肯	-16470
丈	-16471
捉	-16472
皆	-16473
称	-16474
黑	-16475
房	-16476
双	-16477
棍	-16478
比	-16479
盘	-16480
顶	-16481
世	-16482
烧	-16483
绳	-16484
贼	-16485
丹	-16486
恩	-16487
排	-16488
计	-16489
阵	-16490
平	-16491
遇	-16492
钻	-16493
容	-16494
界	-16495
皮	-16496
茶	-16497
响	-16498
晚	-16499
虽	-16500
哭	-16501
右	-16502
雾	-16503
尊	-16504
旁	-16505
鬼	-16506
卷	-16507
离	-16508
舍	-16509
许	-16510
邪	-16511
消	-16512
轮	-16513
器	-16514
活	-16515
全	-16516
怒	-16517
枪	-16518
皇	-16519
兢	-16520
强	-16521
引	-16522
晓	-16523
其	-16524
堂	-16525
服	-16526
泪	-16527
咒	-16528
彩	-16529
药	-16530
银	-16531
修	-16532
忍	-16533
饶	-16534
丢	-16535
元	-16536
失	-16537
滚	-16538
偷	-16539
凡	-16540
凶	-16541
复	-16542
按	-16543
持	-16544
觉	-16545
阳	-16546
《	-16547
》	-16548
台	-16549
担	-16550
摆	-16551
信	-16552
唬	-16553
夫	-16554
跟	-16555
锦	-16556
照	-16557
杖	-16558
贫	-16559
断	-16560
答	-16561
翻	-16562
识	-16563
厮	-16564
御	-16565
腰	-16566
华	-16567
婆	-16568
崖	-16569
奈	-16570
幌	-16571
烟	-16572
祖	-16573
跑	-16574
结	-16575
钉	-16576
遍	-16577
恶	-16578
整	-16579
讲	-16580
宿	-16581
寿	-16582
思	-16583
段	-16584
换	-16585
禅	-16586
题	-16587
架	-16588
模	-16589
毫	-16590
造	-16591
久	-16592
岁	-16593
贤	-16594
庄	-16595
筋	-16596
推	-16597
让	-16598
素	-16599
布	-16600
汉	-16601
借	-16602
端	-16603
群	-16604
耍	-16605
诗	-16606
包	-16607
特	-16608
虚	-16609
院	-16610
首	-16611
挑	-16612
背	-16613
该	-16614
谁	-16615
跪	-16616
书	-16617
挂	-16618
盖	-16619
及	-16620
呀	-16621
壁	-16622
揭	-16623
装	-16624
退	-16625
幸	-16626
波	-16627
索	-16628
败	-16629
则	-16630
层	-16631
跌	-16632
递	-16633
尘	-16634
执	-16635
牙	-16636
蒙	-16637
嚷	-16638
威	-16639
曰	-16640
武	-16641
诸	-16642
食	-16643
供	-16644
广	-16645
肉	-16646
足	-16647
疼	-16648
列	-16649
涧	-16650
部	-16651
交	-16652
吹	-16653
恼	-16654
争	-16655
停	-16656
养	-16657
虫	-16658
旧	-16659
爱	-16660
祥	-16661
慢	-16662
春	-16663
侍	-16664
寒	-16665
掌	-16666
筑	-16667
闹	-16668
并	-16669
显	-16670
牵	-16671
利	-16672
姓	-16673
恨	-16674
昏	-16675
狮	-16676
厢	-16677
美	-16678
呵	-16679
哄	-16680
矣	-16681
闪	-16682
号	-16683
园	-16684
汝	-16685
胆	-16686
底	-16687
骨	-16688
塔	-16689
非	-16690
体	-16691
凤	-16692
吾	-16693
荡	-16694
叉	-16695
油	-16696
腾	-16697
胡	-16698
陈	-16699
鼓	-16700
剑	-16701
番	-16702
遭	-16703
锁	-16704
乐	-16705
仔	-16706
岸	-16707
臣	-16708
丑	-16709
亦	-16710
余	-16711
冷	-16712
肚	-16713
顿	-16714
飘	-16715
买	-16716
愿	-16717
招	-16718
次	-16719
角	-16720
咐	-16721
奔	-16722
桃	-16723
袈	-16724
裟	-16725
低	-16726
切	-16727
笼	-16728
翠	-16729
劳	-16730
参	-16731
吩	-16732
息	-16733
掣	-16734
烦	-16735
登	-16736
诚	-16737
岭	-16738
或	-16739
野	-16740
叩	-16741
孩	-16742
柳	-16743
焰	-16744
驮	-16745
围	-16746
妇	-16747
抖	-16748
钟	-16749
妙	-16750
扑	-16751
爬	-16752
刚	-16753
助	-16754
客	-16755
宴	-16756
竹	-16757
节	-16758
亭	-16759
擒	-16760
慈	-16761
紫	-16762
阁	-16763
候	-16764
缘	-16765
岂	-16766
形	-16767
怜	-16768
止	-16769
睛	-16770
碎	-16771
蒸	-16772
貌	-16773
钱	-16774
井	-16775
感	-16776
捻	-16777
目	-16778
雄	-16779
魂	-16780
喷	-16781
峰	-16782
帅	-16783
摸	-16784
歇	-16785
逢	-16786
量	-16787
除	-16788
静	-16789
共	-16790
悲	-16791
洗	-16792
痛	-16793
设	-16794
陛	-16795
熟	-16796
福	-16797
绝	-16798
亏	-16799
影	-16800
景	-16801
灭	-16802
绣	-16803
舞	-16804
匹	-16805
守	-16806
欺	-16807
牌	-16808
饮	-16809
丝	-16810
坡	-16811
束	-16812
疑	-16813
短	-16814
缠	-16815
论	-16816
躲	-16817
闲	-16818
冲	-16819
扫	-16820
踏	-16821
鱼	-16822
北	-16823
叶	-16824
喊	-16825
捆	-16826
治	-16827
渐	-16828
粗	-16829
赌	-16830
雪	-16831
亮	-16832
刹	-16833
拾	-16834
新	-16835
蓬	-16836
遮	-16837
德	-16838
找	-16839
甲	-16840
辞	-16841
顾	-16842
怀	-16843
池	-16844
瓶	-16845
磕	-16846
芦	-16847
兽	-16848
势	-16849
员	-16850
咬	-16851
备	-16852
展	-16853
灾	-16854
炼	-16855
逃	-16856
铃	-16857
锅	-16858
伙	-16859
句	-16860
吊	-16861
度	-16862
杯	-16863
祸	-16864
迟	-16865
鹿	-16866
伸	-16867
劈	-16868
医	-16869
披	-16870
狼	-16871
病	-16872
趁	-16873
郎	-16874
卖	-16875
敌	-16876
浪	-16877
游	-16878
砍	-16879
竟	-16880
铺	-16881
鼻	-16882
托	-16883
提	-16884
摄	-16885
昨	-16886
期	-16887
毒	-16888
沉	-16889
献	-16890
羊	-16891
赐	-16892
软	-16893
顺	-16894
块	-16895
泉	-16896
珠	-16897
粉	-16898
驿	-16899
反	-16900
孽	-16901
桥	-16902
猿	-16903
男	-16904
莲	-16905
霞	-16906
居	-16907
惧	-16908
朵	-16909
血	-16910
袖	-16911
陪	-16912
拔	-16913
搀	-16914
汤	-16915
玄	-16916
米	-16917
压	-16918
孤	-16919
胎	-16920
谛	-16921
错	-16922
隐	-16923
霄	-16924
露	-16925
鸟	-16926
决	-16927
凭	-16928
微	-16929
梦	-16930
民	-16931
葫	-16932
证	-16933
躬	-16934
搭	-16935
枝	-16936
济	-16937
赛	-16938
临	-16939
乌	-16940
妈	-16941
宽	-16942
尖	-16943
折	-16944
撒	-16945
歹	-16946
班	-16947
钢	-16948
铜	-16949
坏	-16950
席	-16951
彀	-16952
拥	-16953
江	-16954
船	-16955
蓝	-16956
诀	-16957
投	-16958
浑	-16959
滴	-16960
猛	-16961
街	-16962
俗	-16963
倚	-16964
初	-16965
吟	-16966
垂	-16967
悄	-16968
拽	-16969
替	-16970
站	-16971
巡	-16972
极	-16973
洲	-16974
畜	-16975
算	-16976
苍	-16977
扶	-16978
朕	-16979
查	-16980
每	-16981
炉	-16982
讨	-16983
辰	-16984
醒	-16985
鸡	-16986
哉	-16987
娇	-16988
帘	-16989
旗	-16990
盛	-16991
瞒	-16992
遥	-16993
郡	-16994
军	-16995
巧	-16996
抛	-16997
碗	-16998
调	-16999
闭	-17000
奇	-17001
妻	-17002
幽	-17003
秋	-17004
记	-17005
启	-17006
团	-17007
奶	-17008
床	-17009
愁	-17010
抢	-17011
梁	-17012
略	-17013
表	-17014
啼	-17015
扬	-17016
拳	-17017
误	-17018
财	-17019
赤	-17020
鸣	-17021
齿	-17022
厉	-17023
密	-17024
寡	-17025
尾	-17026
幼	-17027
户	-17028
村	-17029
温	-17030
热	-17031
片	-17032
狂	-17033
盏	-17034
辨	-17035
夺	-17036
尺	-17037
戴	-17038
渡	-17039
纷	-17040
绕	-17041
致	-17042
负	-17043
车	-17044
麻	-17045
值	-17046
兜	-17047
冰	-17048
唱	-17049
异	-17050
承	-17051
挣	-17052
捧	-17053
独	-17054
禁	-17055
程	-17056
藤	-17057
钵	-17058
顽	-17059
馆	-17060
丁	-17061
桌	-17062
眉	-17063
耶	-17064
辟	-17065
仇	-17066
勒	-17067
柜	-17068
钦	-17069
刺	-17070
叙	-17071
宣	-17072
寇	-17073
森	-17074
樵	-17075
皈	-17076
稳	-17077
臾	-17078
英	-17079
赴	-17080
学	-17081
拖	-17082
易	-17083
瑞	-17084
筵	-17085
芭	-17086
谈	-17087
采	-17088
阿	-17089
劝	-17090
味	-17091
摩	-17092
狠	-17093
碧	-17094
簇	-17095
绑	-17096
绿	-17097
翅	-17098
腹	-17099
蕉	-17100
蛇	-17101
锋	-17102
阻	-17103
驸	-17104
写	-17105
剥	-17106
升	-17107
吆	-17108
敲	-17109
柴	-17110
窝	-17111
累	-17112
羞	-17113
胸	-17114
良	-17115
谨	-17116
适	-17117
专	-17118
圆	-17119
抵	-17120
横	-17121
磨	-17122
积	-17123
避	-17124
阶	-17125
伽	-17126
办	-17127
尸	-17128
忘	-17129
忧	-17130
朱	-17131
袱	-17132
越	-17133
喏	-17134
怨	-17135
拴	-17136
漫	-17137
盗	-17138
种	-17139
菜	-17140
贵	-17141
乘	-17142
兴	-17143
加	-17144
司	-17145
品	-17146
孔	-17147
完	-17148
拱	-17149
攒	-17150
机	-17151
脑	-17152
艳	-17153
踪	-17154
针	-17155
镇	-17156
鹤	-17157
’	-17158
刮	-17159
吉	-17160
套	-17161
封	-17162
巴	-17163
廊	-17164
懒	-17165
抓	-17166
混	-17167
环	-17168
盂	-17169
睁	-17170
费	-17171
轿	-17172
迭	-17173
迷	-17174
配	-17175
叹	-17176
喇	-17177
圈	-17178
宇	-17179
宗	-17180
屏	-17181
惟	-17182
揪	-17183
改	-17184
昂	-17185
梅	-17186
田	-17187
禽	-17188
货	-17189
辈	-17190
途	-17191
顷	-17192
兔	-17193
周	-17194
墙	-17195
妆	-17196
存	-17197
弥	-17198
搅	-17199
秀	-17200
终	-17201
哪	-17202
困	-17203
忒	-17204
悬	-17205
抱	-17206
拐	-17207
拦	-17208
浮	-17209
类	-17210
返	-17211
透	-17212
厅	-17213
寸	-17214
惹	-17215
抹	-17216
永	-17217
肠	-17218
试	-17219
辛	-17220
运	-17221
钩	-17222
项	-17223
乡	-17224
亡	-17225
免	-17226
刻	-17227
吞	-17228
埋	-17229
境	-17230
料	-17231
曹	-17232
残	-17233
烂	-17234
状	-17235
纸	-17236
裙	-17237
迹	-17238
饥	-17239
‘	-17240
丘	-17241
佳	-17242
妃	-17243
巍	-17244
挡	-17245
捏	-17246
欠	-17247
添	-17248
狐	-17249
窗	-17250
访	-17251
追	-17252
颜	-17253
饱	-17254
吐	-17255
吓	-17256
屋	-17257
工	-17258
帖	-17259
帽	-17260
抽	-17261
敬	-17262
映	-17263
普	-17264
焦	-17265
监	-17266
迸	-17267
骗	-17268
乎	-17269
乾	-17270
历	-17271
图	-17272
寂	-17273
柄	-17274
溜	-17275
猢	-17276
硬	-17277
稀	-17278
鞭	-17279
骑	-17280
劫	-17281
吒	-17282
壮	-17283
峻	-17284
扭	-17285
泥	-17286
牒	-17287
狲	-17288
祭	-17289
舌	-17290
袍	-17291
贴	-17292
鞋	-17293
鞍	-17294
鹰	-17295
倘	-17296
凹	-17297
商	-17298
堆	-17299
夯	-17300
宵	-17301
挺	-17302
枯	-17303
淋	-17304
荒	-17305
豹	-17306
遵	-17307
阎	-17308
饿	-17309
丞	-17310
任	-17311
伯	-17312
冒	-17313
哼	-17314
囊	-17315
延	-17316
总	-17317
搬	-17318
珍	-17319
电	-17320
画	-17321
鼋	-17322
侯	-17323
俊	-17324
娥	-17325
智	-17326
甘	-17327
由	-17328
省	-17329
简	-17330
聚	-17331
肩	-17332
銮	-17333
陀	-17334
险	-17335
丧	-17336
偏	-17337
冠	-17338
冤	-17339
喧	-17340
坤	-17341
夸	-17342
帐	-17343
损	-17344
曲	-17345
榜	-17346
移	-17347
罩	-17348
裰	-17349
贪	-17350
较	-17351
闯	-17352
霜	-17353
餐	-17354
丛	-17355
凉	-17356
勿	-17357
占	-17358
县	-17359
哈	-17360
唿	-17361
坠	-17362
始	-17363
宁	-17364
愚	-17365
振	-17366
携	-17367
撑	-17368
斤	-17369
昼	-17370
柏	-17371
漆	-17372
犯	-17373
穷	-17374
股	-17375
赏	-17376
赢	-17377
阔	-17378
支	-17379
案	-17380
淡	-17381
灼	-17382
瑶	-17383
瓦	-17384
缚	-17385
辉	-17386
凌	-17387
堪	-17388
妹	-17389
岩	-17390
州	-17391
挨	-17392
洋	-17393
烈	-17394
猜	-17395
约	-17396
荤	-17397
选	-17398
邦	-17399
闷	-17400
享	-17401
勾	-17402
友	-17403
叮	-17404
戏	-17405
扛	-17406
捞	-17407
插	-17408
斧	-17409
晦	-17410
板	-17411
欣	-17412
犹	-17413
玩	-17414
窟	-17415
竺	-17416
系	-17417
虑	-17418
讯	-17419
诵	-17420
防	-17421
雕	-17422
魄	-17423
乖	-17424
仰	-17425
尝	-17426
恕	-17427
捣	-17428
枉	-17429
烘	-17430
烛	-17431
牢	-17432
盈	-17433
砂	-17434
载	-17435
单	-17436
含	-17437
市	-17438
押	-17439
撇	-17440
攀	-17441
杨	-17442
箭	-17443
谓	-17444
倾	-17445
刁	-17446
吼	-17447
宅	-17448
拉	-17449
桩	-17450
污	-17451
滑	-17452
演	-17453
私	-17454
线	-17455
翁	-17456
腿	-17457
荆	-17458
谷	-17459
输	-17460
酬	-17461
馍	-17462
业	-17463
侧	-17464
努	-17465
匣	-17466
咦	-17467
嘤	-17468
婿	-17469
嫂	-17470
富	-17471
寝	-17472
庭	-17473
怠	-17474
扮	-17475
掀	-17476
探	-17477
斩	-17478
暖	-17479
最	-17480
歌	-17481
爪	-17482
绰	-17483
脉	-17484
获	-17485
鲜	-17486
丽	-17487
兰	-17488
冬	-17489
塞	-17490
巢	-17491
己	-17492
庙	-17493
弼	-17494
擞	-17495
煮	-17496
袋	-17497
贺	-17498
鹅	-17499
义	-17500
奴	-17501
店	-17502
擅	-17503
柱	-17504
浆	-17505
渴	-17506
灰	-17507
焚	-17508
疾	-17509
纪	-17510
腮	-17511
艺	-17512
视	-17513
蹄	-17514
逐	-17515
具	-17516
削	-17517
剪	-17518
召	-17519
嗔	-17520
噫	-17521
坚	-17522
帮	-17523
彻	-17524
斜	-17525
暴	-17526
杂	-17527
汪	-17528
洪	-17529
浓	-17530
潜	-17531
犀	-17532
纳	-17533
网	-17534
锣	-17535
霎	-17536
霭	-17537
严	-17538
午	-17539
唇	-17540
弓	-17541
悚	-17542
扳	-17543
朗	-17544
校	-17545
犬	-17546
示	-17547
祝	-17548
粒	-17549
缰	-17550
诳	-17551
阙	-17552
饼	-17553
鸾	-17554
印	-17555
否	-17556
嘻	-17557
巾	-17558
彼	-17559
惨	-17560
拂	-17561
拈	-17562
拘	-17563
掼	-17564
敕	-17565
毗	-17566
洒	-17567
渺	-17568
煎	-17569
皂	-17570
粮	-17571
绵	-17572
肝	-17573
蟠	-17574
贬	-17575
遣	-17576
锤	-17577
默	-17578
龟	-17579
乞	-17580
产	-17581
仍	-17582
代	-17583
史	-17584
孝	-17585
掩	-17586
摘	-17587
敖	-17588
权	-17589
梢	-17590
檐	-17591
浴	-17592
獐	-17593
璃	-17594
瓜	-17595
禄	-17596
秉	-17597
诉	-17598
谎	-17599
赞	-17600
隔	-17601
雀	-17602
丰	-17603
况	-17604
准	-17605
咽	-17606
壶	-17607
志	-17608
搜	-17609
斟	-17610
旋	-17611
术	-17612
杵	-17613
格	-17614
漠	-17615
球	-17616
痴	-17617
盆	-17618
缓	-17619
芳	-17620
裹	-17621
超	-17622
释	-17623
际	-17624
颗	-17625
伶	-17626
典	-17627
冻	-17628
凄	-17629
割	-17630
厚	-17631
哀	-17632
埃	-17633
夏	-17634
宰	-17635
庵	-17636
庶	-17637
怯	-17638
恭	-17639
惫	-17640
愈	-17641
扎	-17642
撺	-17643
擎	-17644
攻	-17645
斯	-17646
棘	-17647
泰	-17648
渔	-17649
熬	-17650
砖	-17651
穴	-17652
策	-17653
耐	-17654
营	-17655
薄	-17656
蜜	-17657
蝇	-17658
赖	-17659
逞	-17660
逼	-17661
铙	-17662
陷	-17663
鬓	-17664
鳞	-17665
丸	-17666
仗	-17667
仪	-17668
催	-17669
凝	-17670
勇	-17671
叨	-17672
吸	-17673
川	-17674
截	-17675
扣	-17676
拙	-17677
拨	-17678
浅	-17679
溪	-17680
漏	-17681
纱	-17682
萝	-17683
蟹	-17684
衬	-17685
议	-17686
蹲	-17687
达	-17688
零	-17689
鸦	-17690
仁	-17691
像	-17692
刷	-17693
剖	-17694
噙	-17695
坊	-17696
坛	-17697
夹	-17698
嫌	-17699
屈	-17700
履	-17701
建	-17702
律	-17703
授	-17704
晴	-17705
札	-17706
杏	-17707
梆	-17708
涌	-17709
潭	-17710
潺	-17711
竖	-17712
葛	-17713
词	-17714
踢	-17715
邀	-17716
鼍	-17717
乒	-17718
僮	-17719
勤	-17720
匠	-17721
厨	-17722
垢	-17723
庆	-17724
征	-17725
润	-17726
篷	-17727
絮	-17728
绦	-17729
缝	-17730
缸	-17731
虾	-17732
谋	-17733
酥	-17734
陋	-17735
陡	-17736
障	-17737
颈	-17738
驼	-17739
验	-17740
鲁	-17741
丫	-17742
制	-17743
卧	-17744
卫	-17745
嫔	-17746
嫩	-17747
宜	-17748
岳	-17749
弹	-17750
挽	-17751
捽	-17752
晒	-17753
染	-17754
激	-17755
燥	-17756
狸	-17757
瘦	-17758
祷	-17759
符	-17760
置	-17761
耸	-17762
芝	-17763
虔	-17764
蟒	-17765
豪	-17766
赡	-17767
跨	-17768
违	-17769
逍	-17770
邓	-17771
郁	-17772
锡	-17773
□	-17774
付	-17775
侵	-17776
俯	-17777
偶	-17778
冥	-17779
咄	-17780
哨	-17781
壑	-17782
夷	-17783
姐	-17784
婚	-17785
察	-17786
拆	-17787
捶	-17788
播	-17789
撮	-17790
斑	-17791
暑	-17792
栏	-17793
株	-17794
注	-17795
涯	-17796
痒	-17797
眠	-17798
社	-17799
突	-17800
窍	-17801
给	-17802
脊	-17803
蛟	-17804
衫	-17805
豆	-17806
辇	-17807
邻	-17808
雅	-17809
黎	-17810
乓	-17811
俐	-17812
堕	-17813
妨	-17814
弃	-17815
弱	-17816
悠	-17817
掬	-17818
昧	-17819
椅	-17820
沾	-17821
泄	-17822
疏	-17823
盔	-17824
砌	-17825
祗	-17826
羽	-17827
耀	-17828
茫	-17829
蜂	-17830
衔	-17831
贯	-17832
赦	-17833
蹬	-17834
辔	-17835
飕	-17836
伴	-17837
击	-17838
叔	-17839
哑	-17840
委	-17841
姿	-17842
尉	-17843
尼	-17844
峨	-17845
巨	-17846
惶	-17847
戟	-17848
搠	-17849
擂	-17850
昆	-17851
楚	-17852
款	-17853
歪	-17854
毂	-17855
湾	-17856
源	-17857
潇	-17858
熊	-17859
爽	-17860
狗	-17861
祈	-17862
窿	-17863
纠	-17864
臂	-17865
舅	-17866
蝉	-17867
衙	-17868
补	-17869
躯	-17870
轩	-17871
鼠	-17872
亚	-17873
健	-17874
充	-17875
凛	-17876
区	-17877
吵	-17878
奘	-17879
姻	-17880
婴	-17881
巅	-17882
弯	-17883
悦	-17884
慧	-17885
拄	-17886
擦	-17887
敛	-17888
族	-17889
晶	-17890
朋	-17891
朦	-17892
枣	-17893
核	-17894
桶	-17895
检	-17896
派	-17897
涉	-17898
猎	-17899
琉	-17900
眷	-17901
碍	-17902
笔	-17903
缩	-17904
觅	-17905
讫	-17906
辘	-17907
镜	-17908
髻	-17909
伺	-17910
傲	-17911
审	-17912
岛	-17913
帚	-17914
惜	-17915
捕	-17916
揣	-17917
杆	-17918
栽	-17919
檀	-17920
湖	-17921
滔	-17922
潮	-17923
澄	-17924
灶	-17925
爹	-17926
琼	-17927
磬	-17928
罕	-17929
胖	-17930
脓	-17931
膊	-17932
臭	-17933
舒	-17934
莱	-17935
蕊	-17936
裳	-17937
贱	-17938
速	-17939
遗	-17940
集	-17941
预	-17942
额	-17943
颠	-17944
侮	-17945
刃	-17946
副	-17947
务	-17948
卿	-17949
叟	-17950
嚼	-17951
固	-17952
属	-17953
峥	-17954
嵘	-17955
惠	-17956
抟	-17957
捱	-17958
旌	-17959
晃	-17960
概	-17961
汗	-17962
燕	-17963
率	-17964
玲	-17965
秽	-17966
笋	-17967
绫	-17968
缕	-17969
职	-17970
舟	-17971
荣	-17972
衰	-17973
醉	-17974
铲	-17975
限	-17976
雌	-17977
靠	-17978
馥	-17979
鹊	-17980
倦	-17981
刑	-17982
哮	-17983
啸	-17984
喘	-17985
幢	-17986
弦	-17987
悔	-17988
惯	-17989
挝	-17990
捎	-17991
晌	-17992
材	-17993
殊	-17994
氏	-17995
沐	-17996
泛	-17997
洁	-17998
浸	-17999
澡	-18000
煌	-18001
秤	-18002
竿	-18003
糊	-18004
绒	-18005
膳	-18006
裂	-18007
谐	-18008
雁	-18009
习	-18010
促	-18011
判	-18012
剃	-18013
卢	-18014
呐	-18015
哗	-18016
喉	-18017
嘘	-18018
域	-18019
基	-18020
塌	-18021
婢	-18022
徐	-18023
患	-18024
惑	-18025
戈	-18026
扰	-18027
拢	-18028
拯	-18029
挟	-18030
暂	-18031
曜	-18032
械	-18033
沌	-18034
滩	-18035
熏	-18036
珑	-18037
瓣	-18038
盼	-18039
竞	-18040
竭	-18041
编	-18042
缴	-18043
耽	-18044
聒	-18045
脂	-18046
芽	-18047
蜻	-18048
誓	-18049
诈	-18050
趣	-18051
遁	-18052
酱	-18053
酸	-18054
骸	-18055
乔	-18056
俏	-18057
凑	-18058
凳	-18059
剁	-18060
剿	-18061
卒	-18062
另	-18063
圭	-18064
央	-18065
妄	-18066
孜	-18067
射	-18068
尿	-18069
悯	-18070
旱	-18071
枕	-18072
梳	-18073
殷	-18074
淬	-18075
瀛	-18076
炎	-18077
狱	-18078
痕	-18079
皎	-18080
磷	-18081
祠	-18082
秃	-18083
窄	-18084
篮	-18085
联	-18086
胧	-18087
腔	-18088
臊	-18089
苔	-18090
苗	-18091
茅	-18092
荷	-18093
蒲	-18094
褊	-18095
跃	-18096
迦	-18097
韵	-18098
鬃	-18099
鳜	-18100
乙	-18101
仆	-18102
优	-18103
佯	-18104
傩	-18105
剔	-18106
危	-18107
哝	-18108
喂	-18109
噪	-18110
囫	-18111
囵	-18112
奎	-18113
奖	-18114
宙	-18115
峦	-18116
巽	-18117
控	-18118
措	-18119
揉	-18120
揖	-18121
搂	-18122
昔	-18123
栋	-18124
栖	-18125
沿	-18126
津	-18127
渊	-18128
灌	-18129
炮	-18130
甜	-18131
盐	-18132
瞻	-18133
科	-18134
糖	-18135
绽	-18136
缈	-18137
缥	-18138
腐	-18139
腥	-18140
荫	-18141
蔼	-18142
蜓	-18143
袄	-18144
触	-18145
谦	-18146
贞	-18147
赃	-18148
赚	-18149
跷	-18150
轰	-18151
锐	-18152
隍	-18153
靛	-18154
飒	-18155
鳖	-18156
允	-18157
克	-18158
党	-18159
勘	-18160
卦	-18161
卯	-18162
哏	-18163
唏	-18164
嗟	-18165
坟	-18166
屠	-18167
崩	-18168
庚	-18169
恳	-18170
挫	-18171
桧	-18172
榴	-18173
毡	-18174
浇	-18175
淅	-18176
淘	-18177
滋	-18178
滞	-18179
灿	-18180
炭	-18181
申	-18182
皱	-18183
盹	-18184
篇	-18185
糕	-18186
绩	-18187
缨	-18188
聊	-18189
育	-18190
肴	-18191
膝	-18192
艰	-18193
苏	-18194
蔬	-18195
蟭	-18196
裁	-18197
详	-18198
诺	-18199
贩	-18200
辣	-18201
逆	-18202
钗	-18203
铸	-18204
靴	-18205
骷	-18206
髅	-18207
鬟	-18208
鹦	-18209
麟	-18210
乍	-18211
价	-18212
伐	-18213
伫	-18214
劣	-18215
卵	-18216
坑	-18217
墨	-18218
壳	-18219
媒	-18220
寄	-18221
尔	-18222
廷	-18223
忆	-18224
恋	-18225
愧	-18226
扢	-18227
据	-18228
揩	-18229
暮	-18230
朔	-18231
杰	-18232
桂	-18233
涎	-18234
湿	-18235
炒	-18236
燎	-18237
瘟	-18238
睬	-18239
瞌	-18240
矮	-18241
碌	-18242
窃	-18243
笙	-18244
绊	-18245
罡	-18246
肥	-18247
腌	-18248
膏	-18249
芒	-18250
蘸	-18251
蛛	-18252
蛾	-18253
询	-18254
诲	-18255
读	-18256
资	-18257
踵	-18258
钺	-18259
附	-18260
饰	-18261
馕	-18262
髯	-18263
侄	-18264
傍	-18265
冉	-18266
剩	-18267
匾	-18268
卉	-18269
厄	-18270
呢	-18271
啃	-18272
垣	-18273
填	-18274
墩	-18275
姑	-18276
室	-18277
宾	-18278
屡	-18279
崎	-18280
嵌	-18281
嵯	-18282
惭	-18283
愆	-18284
拣	-18285
挥	-18286
摧	-18287
昴	-18288
柿	-18289
梭	-18290
槛	-18291
沟	-18292
浊	-18293
淫	-18294
濯	-18295
獠	-18296
篱	-18297
簿	-18298
糟	-18299
织	-18300
脏	-18301
舀	-18302
苑	-18303
苫	-18304
薜	-18305
蚁	-18306
蝶	-18307
衲	-18308
褪	-18309
规	-18310
赵	-18311
辖	-18312
辱	-18313
钓	-18314
锯	-18315
陵	-18316
颇	-18317
骁	-18318
鹏	-18319
麒	-18320
仑	-18321
僻	-18322
刘	-18323
唧	-18324
塘	-18325
妾	-18326
屑	-18327
岖	-18328
巳	-18329
幡	-18330
慎	-18331
扌	-18332
挤	-18333
掐	-18334
掳	-18335
搁	-18336
操	-18337
敝	-18338
标	-18339
棋	-18340
棺	-18341
槐	-18342
沼	-18343
泽	-18344
涛	-18345
涤	-18346
渎	-18347
溺	-18348
烹	-18349
狡	-18350
猕	-18351
猱	-18352
獬	-18353
琵	-18354
琶	-18355
碑	-18356
祛	-18357
稷	-18358
篁	-18359
籁	-18360
纤	-18361
纯	-18362
罄	-18363
耕	-18364
聋	-18365
肿	-18366
腊	-18367
腻	-18368
菲	-18369
藜	-18370
襟	-18371
谒	-18372
贡	-18373
躁	-18374
鑙	-18375
队	-18376
雏	-18377
霓	-18378
魅	-18379
麦	-18380
乳	-18381
介	-18382
仓	-18383
伦	-18384
佈	-18385
佑	-18386
兕	-18387
凿	-18388
剜	-18389
勉	-18390
叱	-18391
呜	-18392
呻	-18393
咤	-18394
唳	-18395
嘉	-18396
嘱	-18397
垓	-18398
堤	-18399
增	-18400
妪	-18401
嫦	-18402
帛	-18403
惰	-18404
戚	-18405
扁	-18406
拷	-18407
援	-18408
旷	-18409
晕	-18410
柔	-18411
梃	-18412
梯	-18413
棱	-18414
榻	-18415
樱	-18416
毁	-18417
泡	-18418
浩	-18419
涓	-18420
涨	-18421
淹	-18422
湛	-18423
爆	-18424
牲	-18425
犴	-18426
猩	-18427
琢	-18428
琪	-18429
琴	-18430
瓢	-18431
益	-18432
矗	-18433
磛	-18434
禀	-18435
章	-18436
筏	-18437
粘	-18438
糙	-18439
维	-18440
罐	-18441
翘	-18442
肃	-18443
胀	-18444
胁	-18445
脁	-18446
苟	-18447
虹	-18448
蜘	-18449
蜡	-18450
融	-18451
袭	-18452
觌	-18453
诊	-18454
诱	-18455
趱	-18456
蹊	-18457
辅	-18458
迓	-18459
酉	-18460
醋	-18461
鉴	-18462
钹	-18463
锉	-18464
陆	-18465
陶	-18466
雳	-18467
霹	-18468
鲇	-18469
鲤	-18470
亢	-18471
亥	-18472
伞	-18473
倍	-18474
凋	-18475
剌	-18476
劲	-18477
博	-18478
卜	-18479
卸	-18480
厘	-18481
吝	-18482
咳	-18483
啄	-18484
嘛	-18485
噤	-18486
垒	-18487
奋	-18488
契	-18489
奸	-18490
妒	-18491
娆	-18492
寅	-18493
屁	-18494
屯	-18495
崔	-18496
幅	-18497
幔	-18498
忖	-18499
忠	-18500
态	-18501
怡	-18502
恰	-18503
扉	-18504
挈	-18505
掠	-18506
揝	-18507
搓	-18508
搪	-18509
撩	-18510
撼	-18511
斓	-18512
晏	-18513
枷	-18514
柯	-18515
桓	-18516
梨	-18517
棹	-18518
槌	-18519
槽	-18520
氛	-18521
汞	-18522
沫	-18523
焉	-18524
牡	-18525
猊	-18526
猖	-18527
玛	-18528
玻	-18529
瑙	-18530
碓	-18531
碣	-18532
磁	-18533
稽	-18534
筛	-18535
篾	-18536
级	-18537
绮	-18538
羡	-18539
肌	-18540
胭	-18541
芍	-18542
菇	-18543
菊	-18544
葱	-18545
蒿	-18546
蔓	-18547
蔽	-18548
蕙	-18549
藓	-18550
虱	-18551
蛰	-18552
袅	-18553
觑	-18554
诛	-18555
责	-18556
迅	-18557
迢	-18558
鄙	-18559
销	-18560
锭	-18561
隆	-18562
革	-18563
颂	-18564
频	-18565
馒	-18566
馨	-18567
騪	-18568
骡	-18569
鸳	-18570
鼎	-18571
京	-18572
侣	-18573
偎	-18574
偿	-18575
农	-18576
减	-18577
刽	-18578
匙	-18579
咋	-18580
唾	-18581
嗳	-18582
坎	-18583
塑	-18584
妍	-18585
姹	-18586
娑	-18587
媚	-18588
嫁	-18589
寞	-18590
巷	-18591
庞	-18592
废	-18593
忏	-18594
懈	-18595
拚	-18596
挠	-18597
描	-18598
旅	-18599
昭	-18600
枚	-18601
柬	-18602
栗	-18603
桑	-18604
棕	-18605
棠	-18606
槃	-18607
氲	-18608
液	-18609
淙	-18610
灞	-18611
烬	-18612
犭	-18613
狻	-18614
猫	-18615
甥	-18616
皓	-18617
稻	-18618
笠	-18619
箕	-18620
箫	-18621
箱	-18622
簪	-18623
繁	-18624
绛	-18625
络	-18626
绡	-18627
缤	-18628
缺	-18629
翡	-18630
翩	-18631
肆	-18632
肢	-18633
肺	-18634
芥	-18635
荐	-18636
莎	-18637
莽	-18638
萄	-18639
葡	-18640
蘑	-18641
蛮	-18642
衢	-18643
训	-18644
讶	-18645
谬	-18646
赘	-18647
趋	-18648
蹈	-18649
蹭	-18650
辆	-18651
酌	-18652
酣	-18653
铠	-18654
陌	-18655
震	-18656
颓	-18657
馅	-18658
馔	-18659
鳌	-18660
鸿	-18661
串	-18662
亘	-18663
亿	-18664
仅	-18665
兀	-18666
兮	-18667
匝	-18668
吠	-18669
咛	-18670
哽	-18671
啐	-18672
喳	-18673
嘶	-18674
夕	-18675
奥	-18676
姆	-18677
姨	-18678
娜	-18679
嶂	-18680
帕	-18681
序	-18682
库	-18683
康	-18684
弘	-18685
忿	-18686
恁	-18687
恍	-18688
慨	-18689
挞	-18690
挪	-18691
掮	-18692
掷	-18693
搴	-18694
敞	-18695
旦	-18696
晨	-18697
末	-18698
朽	-18699
桠	-18700
棂	-18701
椒	-18702
楞	-18703
檄	-18704
氅	-18705
汁	-18706
沧	-18707
涂	-18708
涅	-18709
淌	-18710
淮	-18711
瀑	-18712
狈	-18713
畔	-18714
皿	-18715
睹	-18716
碾	-18717
禹	-18718
禾	-18719
窖	-18720
笤	-18721
箏	-18722
籍	-18723
糠	-18724
练	-18725
继	-18726
绪	-18727
续	-18728
羁	-18729
翰	-18730
聪	-18731
芙	-18732
茂	-18733
茵	-18734
莺	-18735
菁	-18736
萤	-18737
葬	-18738
蓉	-18739
蓼	-18740
蜢	-18741
蝎	-18742
螃	-18743
诃	-18744
谅	-18745
质	-18746
逊	-18747
逻	-18748
醮	-18749
颔	-18750
颤	-18751
馐	-18752
骋	-18753
骏	-18754
骤	-18755
魉	-18756
魍	-18757
魏	-18758
鹂	-18759
鹫	-18760
鹭	-18761
麋	-18762
黛	-18763
鼾	-18764
龄	-18765
.	-18766
⻊	-18767
估	-18768
偈	-18769
募	-18770
卺	-18771
厌	-18772
吏	-18773
吕	-18774
咙	-18775
哂	-18776
哺	-18777
嘈	-18778
嚏	-18779
圜	-18780
均	-18781
垛	-18782
堵	-18783
墓	-18784
夭	-18785
姜	-18786
嫉	-18787
季	-18788
宦	-18789
导	-18790
局	-18791
岫	-18792
峭	-18793
帏	-18794
彤	-18795
循	-18796
徵	-18797
怆	-18798
扒	-18799
抄	-18800
拍	-18801
挜	-18802
捡	-18803
揌	-18804
撤	-18805
效	-18806
旃	-18807
杜	-18808
杳	-18809
栈	-18810
槎	-18811
殃	-18812
氤	-18813
沥	-18814
涕	-18815
漓	-18816
漱	-18817
牟	-18818
珊	-18819
瑕	-18820
畏	-18821
痨	-18822
盒	-18823
睦	-18824
瞑	-18825
祟	-18826
秘	-18827
究	-18828
筹	-18829
箸	-18830
篆	-18831
篙	-18832
粥	-18833
纹	-18834
绞	-18835
绢	-18836
缆	-18837
缭	-18838
翎	-18839
肤	-18840
胃	-18841
胞	-18842
胯	-18843
腑	-18844
腕	-18845
茸	-18846
荔	-18847
荧	-18848
葵	-18849
蒜	-18850
蘙	-18851
虞	-18852
蚂	-18853
蚊	-18854
蚕	-18855
蚣	-18856
蚤	-18857
蜃	-18858
蜈	-18859
蝼	-18860
蠢	-18861
裘	-18862
裤	-18863
觥	-18864
讳	-18865
诏	-18866
谣	-18867
赭	-18868
迈	-18869
逸	-18870
钥	-18871
钧	-18872
钳	-18873
铎	-18874
锺	-18875
锽	-18876
镌	-18877
闟	-18878
靗	-18879
韩	-18880
饣	-18881
驯	-18882
驴	-18883
髓	-18884
鬣	-18885
魇	-18886
鸯	-18887
麂	-18888
麈	-18889
亩	-18890
伪	-18891
佐	-18892
佩	-18893
债	-18894
偃	-18895
兆	-18896
冗	-18897
划	-18898
剐	-18899
匀	-18900
厂	-18901
叆	-18902
咸	-18903
唆	-18904
唵	-18905
啭	-18906
嚎	-18907
囔	-18908
坂	-18909
墀	-18910
姊	-18911
孕	-18912
寐	-18913
尤	-18914
尬	-18915
尴	-18916
屎	-18917
幕	-18918
庖	-18919
庸	-18920
录	-18921
彘	-18922
彪	-18923
役	-18924
忌	-18925
忝	-18926
怖	-18927
惩	-18928
慕	-18929
懂	-18930
懊	-18931
戎	-18932
戗	-18933
抗	-18934
挎	-18935
掯	-18936
搽	-18937
攸	-18938
政	-18939
敧	-18940
旺	-18941
暇	-18942
枫	-18943
栊	-18944
梧	-18945
棵	-18946
椰	-18947
橙	-18948
汲	-18949
泣	-18950
泱	-18951
泾	-18952
测	-18953
涩	-18954
溅	-18955
煨	-18956
版	-18957
牧	-18958
獗	-18959
玳	-18960
珀	-18961
珮	-18962
琥	-18963
瑁	-18964
瑚	-18965
瓮	-18966
疲	-18967
疴	-18968
瘴	-18969
癞	-18970
瞎	-18971
砑	-18972
砚	-18973
祀	-18974
窈	-18975
窕	-18976
簸	-18977
纬	-18978
统	-18979
绷	-18980
缎	-18981
罴	-18982
翼	-18983
耗	-18984
耮	-18985
耻	-18986
聆	-18987
脯	-18988
脾	-18989
膂	-18990
膛	-18991
艮	-18992
艾	-18993
芋	-18994
萧	-18995
萶	-18996
葩	-18997
蒀	-18998
蕈	-18999
薇	-19000
藕	-19001
虼	-19002
蟾	-19003
衾	-19004
裆	-19005
覆	-19006
览	-19007
誉	-19008
讹	-19009
课	-19010
豸	-19011
貂	-19012
贻	-19013
赠	-19014
跄	-19015
轳	-19016
迁	-19017
迥	-19018
邱	-19019
郭	-19020
鍃	-19021
铅	-19022
锈	-19023
锻	-19024
闢	-19025
闰	-19026
阑	-19027
隅	-19028
隙	-19029
霆	-19030
韬	-19031
饵	-19032
馁	-19033
驰	-19034
驱	-19035
骇	-19036
鸭	-19037
鹃	-19038
鹞	-19039
麝	-19040
仿	-19041
伊	-19042
佣	-19043
俟	-19044
俸	-19045
倏	-19046
僝	-19047
僵	-19048
兹	-19049
凰	-19050
刍	-19051
创	-19052
协	-19053
厦	-19054
叵	-19055
吴	-19056
哇	-19057
哜	-19058
哦	-19059
啕	-19060
嗽	-19061
嚣	-19062
坦	-19063
奁	-19064
娃	-19065
娄	-19066
娉	-19067
娱	-19068
娶	-19069
婷	-19070
寨	-19071
岚	-19072
峪	-19073
崁	-19074
崇	-19075
希	-19076
廓	-19077
弊	-19078
忤	-19079
恙	-19080
悭	-19081
戌	-19082
戮	-19083
戳	-19084
批	-19085
拒	-19086
掘	-19087
摺	-19088
攥	-19089
晤	-19090
杓	-19091
枢	-19092
桅	-19093
桨	-19094
梵	-19095
植	-19096
椽	-19097
楮	-19098
楷	-19099
榛	-19100
汹	-19101
沦	-19102
沱	-19103
沽	-19104
涸	-19105
湘	-19106
滂	-19107
漾	-19108
澜	-19109
烁	-19110
烨	-19111
爨	-19112
爵	-19113
犊	-19114
犼	-19115
狞	-19116
狢	-19117
狭	-19118
獾	-19119
玷	-19120
瑜	-19121
畅	-19122
痰	-19123
督	-19124
矩	-19125
碟	-19126
禳	-19127
秧	-19128
笛	-19129
纭	-19130
纲	-19131
纶	-19132
缁	-19133
缃	-19134
翳	-19135
耙	-19136
耿	-19137
肐	-19138
肱	-19139
脆	-19140
脐	-19141
腆	-19142
舂	-19143
舜	-19144
苓	-19145
荠	-19146
菱	-19147
萌	-19148
萦	-19149
蒺	-19150
蛕	-19151
蛭	-19152
蝴	-19153
螺	-19154
衡	-19155
衤	-19156
袜	-19157
讽	-19158
诣	-19159
诬	-19160
谗	-19161
豕	-19162
贾	-19163
赁	-19164
赋	-19165
赥	-19166
跋	-19167
践	-19168
踉	-19169
踊	-19170
踌	-19171
蹉	-19172
蹙	-19173
躇	-19174
轴	-19175
辄	-19176
酪	-19177
酿	-19178
醴	-19179
钅	-19180
锄	-19181
镫	-19182
镶	-19183
阆	-19184
雇	-19185
霖	-19186
馋	-19187
魁	-19188
魑	-19189
鲸	-19190
鹉	-19191
亵	-19192
仃	-19193
仞	-19194
伍	-19195
伟	-19196
例	-19197
侥	-19198
俚	-19199
倨	-19200
储	-19201
儒	-19202
冢	-19203
函	-19204
刬	-19205
卤	-19206
卮	-19207
叠	-19208
吁	-19209
吽	-19210
呖	-19211
咂	-19212
咆	-19213
咎	-19214
咨	-19215
咿	-19216
唣	-19217
喃	-19218
嗅	-19219
嗒	-19220
嗛	-19221
囚	-19222
圃	-19223
圯	-19224
址	-19225
垫	-19226
堑	-19227
堡	-19228
够	-19229
奕	-19230
奠	-19231
姚	-19232
媳	-19233
媾	-19234
它	-19235
宠	-19236
屉	-19237
屹	-19238
岱	-19239
峤	-19240
庑	-19241
廉	-19242
式	-19243
弩	-19244
徉	-19245
恃	-19246
恒	-19247
恣	-19248
恤	-19249
悉	-19250
惚	-19251
懵	-19252
扠	-19253
抉	-19254
抚	-19255
拌	-19256
拗	-19257
择	-19258
括	-19259
挛	-19260
捋	-19261
捍	-19262
掇	-19263
揸	-19264
攘	-19265
敦	-19266
昌	-19267
晋	-19268
晾	-19269
曼	-19270
朴	-19271
杠	-19272
桐	-19273
桔	-19274
梓	-19275
棚	-19276
椿	-19277
楠	-19278
楫	-19279
榔	-19280
榧	-19281
槁	-19282
槿	-19283
樊	-19284
樗	-19285
樽	-19286
檎	-19287
氐	-19288
沸	-19289
泊	-19290
泻	-19291
淄	-19292
湍	-19293
湲	-19294
溟	-19295
煅	-19296
煞	-19297
煤	-19298
熄	-19299
燃	-19300
爻	-19301
牖	-19302
犺	-19303
瑟	-19304
痖	-19305
盢	-19306
盲	-19307
眸	-19308
瞅	-19309
矬	-19310
硝	-19311
祯	-19312
秦	-19313
稍	-19314
稼	-19315
穗	-19316
穹	-19317
窑	-19318
窜	-19319
窠	-19320
笃	-19321
笊	-19322
筐	-19323
簌	-19324
簧	-19325
粪	-19326
粱	-19327
糜	-19328
糯	-19329
紊	-19330
纥	-19331
绸	-19332
缀	-19333
缉	-19334
缪	-19335
罔	-19336
罚	-19337
羸	-19338
考	-19339
肖	-19340
肞	-19341
肳	-19342
臀	-19343
臻	-19344
舆	-19345
航	-19346
艇	-19347
芰	-19348
芹	-19349
苇	-19350
范	-19351
茄	-19352
茉	-19353
茔	-19354
茧	-19355
茯	-19356
荜	-19357
荼	-19358
蔞	-19359
蔷	-19360
薪	-19361
藐	-19362
藻	-19363
蘋	-19364
蛋	-19365
蛙	-19366
蛤	-19367
蜀	-19368
蜇	-19369
蟆	-19370
蠃	-19371
裔	-19372
褒	-19373
襕	-19374
誊	-19375
诘	-19376
诞	-19377
谤	-19378
谯	-19379
豺	-19380
贮	-19381
赔	-19382
赺	-19383
踞	-19384
蹼	-19385
轸	-19386
辩	-19387
遐	-19388
酆	-19389
醹	-19390
鑞	-19391
钝	-19392
钞	-19393
钤	-19394
钿	-19395
锟	-19396
闺	-19397
阐	-19398
隶	-19399
雉	-19400
需	-19401
霸	-19402
鞘	-19403
鞠	-19404
颅	-19405
颖	-19406
颻	-19407
饧	-19408
饯	-19409
骊	-19410
骘	-19411
骢	-19412
髭	-19413
魈	-19414
鱗	-19415
鲌	-19416
鲭	-19417
鲮	-19418
鸥	-19419
黍	-19420
#	-19421
(	-19422
)	-19423
乜	-19424
亨	-19425
仲	-19426
仵	-19427
伉	-19428
佞	-19429
佥	-19430
俦	-19431
俫	-19432
倩	-19433
傅	-19434
傞	-19435
兼	-19436
凯	-19437
刨	-19438
券	-19439
劬	-19440
匆	-19441
卓	-19442
厕	-19443
叇	-19444
叭	-19445
呕	-19446
呦	-19447
咀	-19448
咏	-19449
哕	-19450
哲	-19451
唉	-19452
啻	-19453
喑	-19454
喙	-19455
嗄	-19456
嗉	-19457
嗓	-19458
嗣	-19459
嗤	-19460
嘟	-19461
嘬	-19462
嘹	-19463
壅	-19464
夙	-19465
奢	-19466
姮	-19467
娟	-19468
娲	-19469
娼	-19470
婵	-19471
媸	-19472
嫡	-19473
嫱	-19474
嬉	-19475
孀	-19476
孰	-19477
宋	-19478
宛	-19479
宪	-19480
寓	-19481
寰	-19482
尧	-19483
尻	-19484
岗	-19485
嶝	-19486
嶷	-19487
帜	-19488
帷	-19489
庇	-19490
庐	-19491
很	-19492
徭	-19493
怅	-19494
恓	-19495
恹	-19496
悴	-19497
惺	-19498
懞	-19499
懦	-19500
抆	-19501
抑	-19502
抠	-19503
拑	-19504
拶	-19505
挦	-19506
捐	-19507
掂	-19508
掏	-19509
掭	-19510
握	-19511
揲	-19512
揾	-19513
搔	-19514
搧	-19515
敷	-19516
旬	-19517
昙	-19518
昤	-19519
晡	-19520
曙	-19521
杲	-19522
杷	-19523
枇	-19524
枭	-19525
某	-19526
柰	-19527
栓	-19528
榄	-19529
榆	-19530
槅	-19531
橄	-19532
檠	-19533
殄	-19534
殖	-19535
毯	-19536
氵	-19537
汀	-19538
汛	-19539
沁	-19540
沍	-19541
泗	-19542
泯	-19543
洼	-19544
浥	-19545
浦	-19546
浬	-19547
涝	-19548
淤	-19549
渍	-19550
渗	-19551
漉	-19552
漕	-19553
漷	-19554
澌	-19555
炊	-19556
炳	-19557
炷	-19558
炽	-19559
烙	-19560
烫	-19561
熙	-19562
熳	-19563
燧	-19564
牯	-19565
牺	-19566
犁	-19567
犒	-19568
猥	-19569
猷	-19570
獭	-19571
玎	-19572
玫	-19573
珪	-19574
琅	-19575
琐	-19576
瑰	-19577
璧	-19578
瓠	-19579
瓯	-19580
畦	-19581
畴	-19582
畿	-19583
疆	-19584
疗	-19585
疙	-19586
疤	-19587
疮	-19588
疯	-19589
疸	-19590
痈	-19591
痊	-19592
盱	-19593
眙	-19594
眺	-19595
瞥	-19596
瞧	-19597
矛	-19598
矢	-19599
砥	-19600
砧	-19601
磊	-19602
磐	-19603
磴	-19604
祐	-19605
秅	-19606
租	-19607
稠	-19608
穰	-19609
窥	-19610
窦	-19611
竦	-19612
笄	-19613
笏	-19614
笞	-19615
筒	-19616
筮	-19617
箔	-19618
箝	-19619
箧	-19620
箨	-19621
箪	-19622
箬	-19623
篡	-19624
粽	-19625
縺	-19626
纟	-19627
纨	-19628
纺	-19629
纻	-19630
纽	-19631
绚	-19632
缟	-19633
羹	-19634
翔	-19635
翕	-19636
翮	-19637
耘	-19638
耰	-19639
肘	-19640
肾	-19641
腭	-19642
腯	-19643
腼	-19644
膜	-19645
膻	-19646
芊	-19647
芤	-19648
苋	-19649
茭	-19650
荞	-19651
荻	-19652
菔	-19653
菡	-19654
萍	-19655
萏	-19656
著	-19657
董	-19658
蒂	-19659
蒊	-19660
蒔	-19661
蓍	-19662
蓦	-19663
蕃	-19664
蕖	-19665
藿	-19666
虏	-19667
虐	-19668
虬	-19669
蚌	-19670
蚓	-19671
蛩	-19672
蜗	-19673
蝠	-19674
衠	-19675
袁	-19676
袂	-19677
袺	-19678
褥	-19679
觜	-19680
觞	-19681
詈	-19682
詹	-19683
譬	-19684
订	-19685
诓	-19686
诡	-19687
谄	-19688
谆	-19689
谕	-19690
谙	-19691
谪	-19692
谶	-19693
豿	-19694
貉	-19695
貔	-19696
贰	-19697
贲	-19698
贽	-19699
赍	-19700
赓	-19701
赫	-19702
趄	-19703
跤	-19704
跬	-19705
蹋	-19706
轧	-19707
辍	-19708
辜	-19709
迩	-19710
迫	-19711
遽	-19712
郊	-19713
郑	-19714
酲	-19715
酷	-19716
醍	-19717
醐	-19718
醪	-19719
醺	-19720
釺	-19721
鍪	-19722
鎎	-19723
鎝	-19724
鏣	-19725
铊	-19726
铛	-19727
铭	-19728
锢	-19729
锥	-19730
镔	-19731
镯	-19732
闱	-19733
闸	-19734
阊	-19735
阖	-19736
霁	-19737
霏	-19738
靖	-19739
韍	-19740
韶	-19741
颏	-19742
颧	-19743
饷	-19744
騡	-19745
驷	-19746
驹	-19747
鲈	-19748
鲨	-19749
鲲	-19750
鳅	-19751
鸪	-19752
鸶	-19753
鹚	-19754
鹧	-19755
"	-19756
*	-19757
丕	-19758
丙	-19759
乏	-19760
予	-19761
互	-19762
佃	-19763
佚	-19764
侈	-19765
侠	-19766
侪	-19767
俄	-19768
俎	-19769
俞	-19770
俪	-19771
俭	-19772
俺	-19773
倖	-19774
倜	-19775
倥	-19776
偌	-19777
傀	-19778
傥	-19779
傻	-19780
僚	-19781
儡	-19782
儾	-19783
兇	-19784
冀	-19785
冈	-19786
冕	-19787
冯	-19788
冽	-19789
凫	-19790
刂	-19791
刎	-19792
删	-19793
剂	-19794
剽	-19795
劖	-19796
勋	-19797
勺	-19798
匡	-19799
匿	-19800
卑	-19801
卞	-19802
呈	-19803
呎	-19804
呱	-19805
咇	-19806
咚	-19807
咱	-19808
唎	-19809
唠	-19810
唯	-19811
啈	-19812
啛	-19813
啮	-19814
啾	-19815
喁	-19816
喋	-19817
喔	-19818
嗗	-19819
嘲	-19820
噇	-19821
噬	-19822
噹	-19823
囟	-19824
圊	-19825
圩	-19826
圪	-19827
坞	-19828
坫	-19829
坯	-19830
埂	-19831
埠	-19832
培	-19833
堰	-19834
墟	-19835
壬	-19836
夤	-19837
妁	-19838
妓	-19839
妩	-19840
妲	-19841
姅	-19842
姌	-19843
姬	-19844
娩	-19845
婪	-19846
嫖	-19847
嫣	-19848
孛	-19849
孟	-19850
孺	-19851
宏	-19852
宥	-19853
宸	-19854
届	-19855
岑	-19856
嵎	-19857
嵩	-19858
巉	-19859
巩	-19860
巫	-19861
币	-19862
帔	-19863
幄	-19864
幛	-19865
幺	-19866
幻	-19867
庾	-19868
廛	-19869
弁	-19870
弈	-19871
弔	-19872
弭	-19873
彭	-19874
彰	-19875
彿	-19876
徊	-19877
徘	-19878
徜	-19879
忐	-19880
忑	-19881
忻	-19882
怛	-19883
恢	-19884
恥	-19885
恧	-19886
恬	-19887
恻	-19888
悖	-19889
惮	-19890
惴	-19891
愉	-19892
愍	-19893
慰	-19894
慵	-19895
慷	-19896
慽	-19897
憔	-19898
戊	-19899
戕	-19900
戛	-19901
抅	-19902
抒	-19903
抡	-19904
抿	-19905
拇	-19906
拟	-19907
拧	-19908
拭	-19909
挹	-19910
捷	-19911
掉	-19912
摊	-19913
摔	-19914
撬	-19915
敏	-19916
旄	-19917
旭	-19918
昇	-19919
昊	-19920
晖	-19921
暄	-19922
暨	-19923
曛	-19924
曳	-19925
杉	-19926
杌	-19927
杗	-19928
杞	-19929
杪	-19930
杭	-19931
枋	-19932
枰	-19933
枸	-19934
柑	-19935
柘	-19936
柞	-19937
柮	-19938
柺	-19939
栅	-19940
栘	-19941
桡	-19942
棣	-19943
楟	-19944
榇	-19945
榾	-19946
槟	-19947
樯	-19948
橐	-19949
橘	-19950
欤	-19951
欧	-19952
欹	-19953
歉	-19954
殁	-19955
殒	-19956
殓	-19957
殡	-19958
毋	-19959
汊	-19960
汨	-19961
汾	-19962
沃	-19963
沖	-19964
沘	-19965
沛	-19966
況	-19967
泌	-19968
泓	-19969
泞	-19970
泠	-19971
泫	-19972
洛	-19973
洸	-19974
浍	-19975
浼	-19976
涵	-19977
淇	-19978
淳	-19979
渚	-19980
渠	-19981
渣	-19982
渤	-19983
渭	-19984
港	-19985
溢	-19986
溲	-19987
滕	-19988
滥	-19989
漩	-19990
潘	-19991
潢	-19992
潦	-19993
澳	-19994
澹	-19995
灸	-19996
